[PAD] 1
[unused1] 1
[unused2] 1
[unused3] 1
[unused4] 1
[unused5] 1
[unused6] 1
[unused7] 1
[unused8] 1
[unused9] 1
[unused10] 1
[unused11] 1
[unused12] 1
[unused13] 1
[unused14] 1
[unused15] 1
[unused16] 1
[unused17] 1
[unused18] 1
[unused19] 1
[unused20] 1
[unused21] 1
[unused22] 1
[unused23] 1
[unused24] 1
[unused25] 1
[unused26] 1
[unused27] 1
[unused28] 1
[unused29] 1
[unused30] 1
[unused31] 1
[unused32] 1
[unused33] 1
[unused34] 1
[unused35] 1
[unused36] 1
[unused37] 1
[unused38] 1
[unused39] 1
[unused40] 1
[unused41] 1
[unused42] 1
[unused43] 1
[unused44] 1
[unused45] 1
[unused46] 1
[unused47] 1
[unused48] 1
[unused49] 1
[unused50] 1
[unused51] 1
[unused52] 1
[unused53] 1
[unused54] 1
[unused55] 1
[unused56] 1
[unused57] 1
[unused58] 1
[unused59] 1
[unused60] 1
[unused61] 1
[unused62] 1
[unused63] 1
[unused64] 1
[unused65] 1
[unused66] 1
[unused67] 1
[unused68] 1
[unused69] 1
[unused70] 1
[unused71] 1
[unused72] 1
[unused73] 1
[unused74] 1
[unused75] 1
[unused76] 1
[unused77] 1
[unused78] 1
[unused79] 1
[unused80] 1
[unused81] 1
[unused82] 1
[unused83] 1
[unused84] 1
[unused85] 1
[unused86] 1
[unused87] 1
[unused88] 1
[unused89] 1
[unused90] 1
[unused91] 1
[unused92] 1
[unused93] 1
[unused94] 1
[unused95] 1
[unused96] 1
[unused97] 1
[unused98] 1
[unused99] 1
[UNK] 1
[CLS] 1
[SEP] 1
[MASK] 1
<S> 1
<T> 1
! 1
" 1
# 1
$ 1
% 1
& 1
' 1
( 1
) 1
* 1
+ 1
, 1
- 1
. 1
/ 1
0 1
1 1
2 1
3 1
4 1
5 1
6 1
7 1
8 1
9 1
: 1
; 1
< 1
= 1
> 1
? 1
@ 1
[ 1
\ 1
] 1
^ 1
_ 1
a 1
b 1
c 1
d 1
e 1
f 1
g 1
h 1
i 1
j 1
k 1
l 1
m 1
n 1
o 1
p 1
q 1
r 1
s 1
t 1
u 1
v 1
w 1
x 1
y 1
z 1
{ 1
| 1
} 1
~ 1
£ 1
¤ 1
¥ 1
§ 1
© 1
« 1
® 1
° 1
± 1
² 1
³ 1
µ 1
· 1
¹ 1
º 1
» 1
¼ 1
× 1
ß 1
æ 1
÷ 1
ø 1
đ 1
ŋ 1
ɔ 1
ə 1
ɡ 1
ʰ 1
ˇ 1
ˈ 1
ˊ 1
ˋ 1
ˍ 1
ː 1
˙ 1
˚ 1
ˢ 1
α 1
β 1
γ 1
δ 1
ε 1
η 1
θ 1
ι 1
κ 1
λ 1
μ 1
ν 1
ο 1
π 1
ρ 1
ς 1
σ 1
τ 1
υ 1
φ 1
χ 1
ψ 1
ω 1
а 1
б 1
в 1
г 1
д 1
е 1
ж 1
з 1
и 1
к 1
л 1
м 1
н 1
о 1
п 1
р 1
с 1
т 1
у 1
ф 1
х 1
ц 1
ч 1
ш 1
ы 1
ь 1
я 1
і 1
ا 1
ب 1
ة 1
ت 1
د 1
ر 1
س 1
ع 1
ل 1
م 1
ن 1
ه 1
و 1
ي 1
۩ 1
ก 1
ง 1
น 1
ม 1
ย 1
ร 1
อ 1
า 1
เ 1
๑ 1
་ 1
ღ 1
ᄀ 1
ᄁ 1
ᄂ 1
ᄃ 1
ᄅ 1
ᄆ 1
ᄇ 1
ᄈ 1
ᄉ 1
ᄋ 1
ᄌ 1
ᄎ 1
ᄏ 1
ᄐ 1
ᄑ 1
ᄒ 1
ᅡ 1
ᅢ 1
ᅣ 1
ᅥ 1
ᅦ 1
ᅧ 1
ᅨ 1
ᅩ 1
ᅪ 1
ᅬ 1
ᅭ 1
ᅮ 1
ᅯ 1
ᅲ 1
ᅳ 1
ᅴ 1
ᅵ 1
ᆨ 1
ᆫ 1
ᆯ 1
ᆷ 1
ᆸ 1
ᆺ 1
ᆻ 1
ᆼ 1
ᗜ 1
ᵃ 1
ᵉ 1
ᵍ 1
ᵏ 1
ᵐ 1
ᵒ 1
ᵘ 1
‖ 1
„ 1
† 1
• 1
‥ 1
‧ 1
 1
‰ 1
′ 1
″ 1
‹ 1
› 1
※ 1
‿ 1
⁄ 1
ⁱ 1
⁺ 1
ⁿ 1
₁ 1
₂ 1
₃ 1
₄ 1
€ 1
℃ 1
№ 1
™ 1
ⅰ 1
ⅱ 1
ⅲ 1
ⅳ 1
ⅴ 1
← 1
↑ 1
→ 1
↓ 1
↔ 1
↗ 1
↘ 1
⇒ 1
∀ 1
− 1
∕ 1
∙ 1
√ 1
∞ 1
∟ 1
∠ 1
∣ 1
∥ 1
∩ 1
∮ 1
∶ 1
∼ 1
∽ 1
≈ 1
≒ 1
≡ 1
≤ 1
≥ 1
≦ 1
≧ 1
≪ 1
≫ 1
⊙ 1
⋅ 1
⋈ 1
⋯ 1
⌒ 1
① 1
② 1
③ 1
④ 1
⑤ 1
⑥ 1
⑦ 1
⑧ 1
⑨ 1
⑩ 1
⑴ 1
⑵ 1
⑶ 1
⑷ 1
⑸ 1
⒈ 1
⒉ 1
⒊ 1
⒋ 1
ⓒ 1
ⓔ 1
ⓘ 1
─ 1
━ 1
│ 1
┃ 1
┅ 1
┆ 1
┊ 1
┌ 1
└ 1
├ 1
┣ 1
═ 1
║ 1
╚ 1
╞ 1
╠ 1
╭ 1
╮ 1
╯ 1
╰ 1
╱ 1
╳ 1
▂ 1
▃ 1
▅ 1
▇ 1
█ 1
▉ 1
▋ 1
▌ 1
▍ 1
▎ 1
■ 1
□ 1
▪ 1
▫ 1
▬ 1
▲ 1
△ 1
▶ 1
► 1
▼ 1
▽ 1
◆ 1
◇ 1
○ 1
◎ 1
● 1
◕ 1
◠ 1
◢ 1
◤ 1
☀ 1
★ 1
☆ 1
☕ 1
☞ 1
☺ 1
☼ 1
♀ 1
♂ 1
♠ 1
♡ 1
♣ 1
♥ 1
♦ 1
♪ 1
♫ 1
♬ 1
✈ 1
✔ 1
✕ 1
✖ 1
✦ 1
✨ 1
✪ 1
✰ 1
✿ 1
❀ 1
❤ 1
➜ 1
➤ 1
⦿ 1
、 1
。 1
〃 1
々 1
〇 1
〈 1
〉 1
《 1
》 1
「 1
」 1
『 1
』 1
【 1
】 1
〓 1
〔 1
〕 1
〖 1
〗 1
〜 1
〝 1
〞 1
ぁ 1
あ 1
ぃ 1
い 1
う 1
ぇ 1
え 1
お 1
か 1
き 1
く 1
け 1
こ 1
さ 1
し 1
す 1
せ 1
そ 1
た 1
ち 1
っ 1
つ 1
て 1
と 1
な 1
に 1
ぬ 1
ね 1
の 1
は 1
ひ 1
ふ 1
へ 1
ほ 1
ま 1
み 1
む 1
め 1
も 1
ゃ 1
や 1
ゅ 1
ゆ 1
ょ 1
よ 1
ら 1
り 1
る 1
れ 1
ろ 1
わ 1
を 1
ん 1
゜ 1
ゝ 1
ァ 1
ア 1
ィ 1
イ 1
ゥ 1
ウ 1
ェ 1
エ 1
ォ 1
オ 1
カ 1
キ 1
ク 1
ケ 1
コ 1
サ 1
シ 1
ス 1
セ 1
ソ 1
タ 1
チ 1
ッ 1
ツ 1
テ 1
ト 1
ナ 1
ニ 1
ヌ 1
ネ 1
ノ 1
ハ 1
ヒ 1
フ 1
ヘ 1
ホ 1
マ 1
ミ 1
ム 1
メ 1
モ 1
ャ 1
ヤ 1
ュ 1
ユ 1
ョ 1
ヨ 1
ラ 1
リ 1
ル 1
レ 1
ロ 1
ワ 1
ヲ 1
ン 1
ヶ 1
・ 1
ー 1
ヽ 1
ㄅ 1
ㄆ 1
ㄇ 1
ㄉ 1
ㄋ 1
ㄌ 1
ㄍ 1
ㄎ 1
ㄏ 1
ㄒ 1
ㄚ 1
ㄛ 1
ㄞ 1
ㄟ 1
ㄢ 1
ㄤ 1
ㄥ 1
ㄧ 1
ㄨ 1
ㆍ 1
㈦ 1
㊣ 1
㎡ 1
㗎 1
一 1
丁 1
七 1
万 1
丈 1
三 1
上 1
下 1
不 1
与 1
丐 1
丑 1
专 1
且 1
丕 1
世 1
丘 1
丙 1
业 1
丛 1
东 1
丝 1
丞 1
丟 1
両 1
丢 1
两 1
严 1
並 1
丧 1
丨 1
个 1
丫 1
中 1
丰 1
串 1
临 1
丶 1
丸 1
丹 1
为 1
主 1
丼 1
丽 1
举 1
丿 1
乂 1
乃 1
久 1
么 1
义 1
之 1
乌 1
乍 1
乎 1
乏 1
乐 1
乒 1
乓 1
乔 1
乖 1
乗 1
乘 1
乙 1
乜 1
九 1
乞 1
也 1
习 1
乡 1
书 1
乩 1
买 1
乱 1
乳 1
乾 1
亀 1
亂 1
了 1
予 1
争 1
事 1
二 1
于 1
亏 1
云 1
互 1
五 1
井 1
亘 1
亙 1
亚 1
些 1
亜 1
亞 1
亟 1
亡 1
亢 1
交 1
亥 1
亦 1
产 1
亨 1
亩 1
享 1
京 1
亭 1
亮 1
亲 1
亳 1
亵 1
人 1
亿 1
什 1
仁 1
仃 1
仄 1
仅 1
仆 1
仇 1
今 1
介 1
仍 1
从 1
仏 1
仑 1
仓 1
仔 1
仕 1
他 1
仗 1
付 1
仙 1
仝 1
仞 1
仟 1
代 1
令 1
以 1
仨 1
仪 1
们 1
仮 1
仰 1
仲 1
件 1
价 1
任 1
份 1
仿 1
企 1
伉 1
伊 1
伍 1
伎 1
伏 1
伐 1
休 1
伕 1
众 1
优 1
伙 1
会 1
伝 1
伞 1
伟 1
传 1
伢 1
伤 1
伦 1
伪 1
伫 1
伯 1
估 1
伴 1
伶 1
伸 1
伺 1
似 1
伽 1
佃 1
但 1
佇 1
佈 1
位 1
低 1
住 1
佐 1
佑 1
体 1
佔 1
何 1
佗 1
佘 1
余 1
佚 1
佛 1
作 1
佝 1
佞 1
佟 1
你 1
佢 1
佣 1
佤 1
佥 1
佩 1
佬 1
佯 1
佰 1
佳 1
併 1
佶 1
佻 1
佼 1
使 1
侃 1
侄 1
來 1
侈 1
例 1
侍 1
侏 1
侑 1
侖 1
侗 1
供 1
依 1
侠 1
価 1
侣 1
侥 1
侦 1
侧 1
侨 1
侬 1
侮 1
侯 1
侵 1
侶 1
侷 1
便 1
係 1
促 1
俄 1
俊 1
俎 1
俏 1
俐 1
俑 1
俗 1
俘 1
俚 1
保 1
俞 1
俟 1
俠 1
信 1
俨 1
俩 1
俪 1
俬 1
俭 1
修 1
俯 1
俱 1
俳 1
俸 1
俺 1
俾 1
倆 1
倉 1
個 1
倌 1
倍 1
倏 1
們 1
倒 1
倔 1
倖 1
倘 1
候 1
倚 1
倜 1
借 1
倡 1
値 1
倦 1
倩 1
倪 1
倫 1
倬 1
倭 1
倶 1
债 1
值 1
倾 1
偃 1
假 1
偈 1
偉 1
偌 1
偎 1
偏 1
偕 1
做 1
停 1
健 1
側 1
偵 1
偶 1
偷 1
偻 1
偽 1
偿 1
傀 1
傅 1
傍 1
傑 1
傘 1
備 1
傚 1
傢 1
傣 1
傥 1
储 1
傩 1
催 1
傭 1
傲 1
傳 1
債 1
傷 1
傻 1
傾 1
僅 1
働 1
像 1
僑 1
僕 1
僖 1
僚 1
僥 1
僧 1
僭 1
僮 1
僱 1
僵 1
價 1
僻 1
儀 1
儂 1
億 1
儆 1
儉 1
儋 1
儒 1
儕 1
儘 1
償 1
儡 1
優 1
儲 1
儷 1
儼 1
儿 1
兀 1
允 1
元 1
兄 1
充 1
兆 1
兇 1
先 1
光 1
克 1
兌 1
免 1
児 1
兑 1
兒 1
兔 1
兖 1
党 1
兜 1
兢 1
入 1
內 1
全 1
兩 1
八 1
公 1
六 1
兮 1
兰 1
共 1
兲 1
关 1
兴 1
兵 1
其 1
具 1
典 1
兹 1
养 1
兼 1
兽 1
冀 1
内 1
円 1
冇 1
冈 1
冉 1
冊 1
册 1
再 1
冏 1
冒 1
冕 1
冗 1
写 1
军 1
农 1
冠 1
冢 1
冤 1
冥 1
冨 1
冪 1
冬 1
冯 1
冰 1
冲 1
决 1
况 1
冶 1
冷 1
冻 1
冼 1
冽 1
冾 1
净 1
凄 1
准 1
凇 1
凈 1
凉 1
凋 1
凌 1
凍 1
减 1
凑 1
凛 1
凜 1
凝 1
几 1
凡 1
凤 1
処 1
凪 1
凭 1
凯 1
凰 1
凱 1
凳 1
凶 1
凸 1
凹 1
出 1
击 1
函 1
凿 1
刀 1
刁 1
刃 1
分 1
切 1
刈 1
刊 1
刍 1
刎 1
刑 1
划 1
列 1
刘 1
则 1
刚 1
创 1
初 1
删 1
判 1
別 1
刨 1
利 1
刪 1
别 1
刮 1
到 1
制 1
刷 1
券 1
刹 1
刺 1
刻 1
刽 1
剁 1
剂 1
剃 1
則 1
剉 1
削 1
剋 1
剌 1
前 1
剎 1
剐 1
剑 1
剔 1
剖 1
剛 1
剜 1
剝 1
剣 1
剤 1
剥 1
剧 1
剩 1
剪 1
副 1
割 1
創 1
剷 1
剽 1
剿 1
劃 1
劇 1
劈 1
劉 1
劊 1
劍 1
劏 1
劑 1
力 1
劝 1
办 1
功 1
加 1
务 1
劣 1
动 1
助 1
努 1
劫 1
劭 1
励 1
劲 1
劳 1
労 1
劵 1
効 1
劾 1
势 1
勁 1
勃 1
勇 1
勉 1
勋 1
勐 1
勒 1
動 1
勖 1
勘 1
務 1
勛 1
勝 1
勞 1
募 1
勢 1
勤 1
勧 1
勳 1
勵 1
勸 1
勺 1
勻 1
勾 1
勿 1
匀 1
包 1
匆 1
匈 1
匍 1
匐 1
匕 1
化 1
北 1
匙 1
匝 1
匠 1
匡 1
匣 1
匪 1
匮 1
匯 1
匱 1
匹 1
区 1
医 1
匾 1
匿 1
區 1
十 1
千 1
卅 1
升 1
午 1
卉 1
半 1
卍 1
华 1
协 1
卑 1
卒 1
卓 1
協 1
单 1
卖 1
南 1
単 1
博 1
卜 1
卞 1
卟 1
占 1
卡 1
卢 1
卤 1
卦 1
卧 1
卫 1
卮 1
卯 1
印 1
危 1
即 1
却 1
卵 1
卷 1
卸 1
卻 1
卿 1
厂 1
厄 1
厅 1
历 1
厉 1
压 1
厌 1
厕 1
厘 1
厚 1
厝 1
原 1
厢 1
厥 1
厦 1
厨 1
厩 1
厭 1
厮 1
厲 1
厳 1
去 1
县 1
叁 1
参 1
參 1
又 1
叉 1
及 1
友 1
双 1
反 1
収 1
发 1
叔 1
取 1
受 1
变 1
叙 1
叛 1
叟 1
叠 1
叡 1
叢 1
口 1
古 1
句 1
另 1
叨 1
叩 1
只 1
叫 1
召 1
叭 1
叮 1
可 1
台 1
叱 1
史 1
右 1
叵 1
叶 1
号 1
司 1
叹 1
叻 1
叼 1
叽 1
吁 1
吃 1
各 1
吆 1
合 1
吉 1
吊 1
吋 1
同 1
名 1
后 1
吏 1
吐 1
向 1
吒 1
吓 1
吕 1
吖 1
吗 1
君 1
吝 1
吞 1
吟 1
吠 1
吡 1
否 1
吧 1
吨 1
吩 1
含 1
听 1
吭 1
吮 1
启 1
吱 1
吳 1
吴 1
吵 1
吶 1
吸 1
吹 1
吻 1
吼 1
吽 1
吾 1
呀 1
呂 1
呃 1
呆 1
呈 1
告 1
呋 1
呎 1
呐 1
呓 1
呕 1
呗 1
员 1
呛 1
呜 1
呢 1
呤 1
呦 1
周 1
呱 1
呲 1
味 1
呵 1
呷 1
呸 1
呻 1
呼 1
命 1
咀 1
咁 1
咂 1
咄 1
咆 1
咋 1
和 1
咎 1
咏 1
咐 1
咒 1
咔 1
咕 1
咖 1
咗 1
咘 1
咙 1
咚 1
咛 1
咣 1
咤 1
咦 1
咧 1
咨 1
咩 1
咪 1
咫 1
咬 1
咭 1
咯 1
咱 1
咲 1
咳 1
咸 1
咻 1
咽 1
咿 1
哀 1
品 1
哂 1
哄 1
哆 1
哇 1
哈 1
哉 1
哋 1
哌 1
响 1
哎 1
哏 1
哐 1
哑 1
哒 1
哔 1
哗 1
哟 1
員 1
哥 1
哦 1
哧 1
哨 1
哩 1
哪 1
哭 1
哮 1
哲 1
哺 1
哼 1
哽 1
唁 1
唄 1
唆 1
唇 1
唉 1
唏 1
唐 1
唑 1
唔 1
唠 1
唤 1
唧 1
唬 1
售 1
唯 1
唰 1
唱 1
唳 1
唷 1
唸 1
唾 1
啃 1
啄 1
商 1
啉 1
啊 1
問 1
啓 1
啕 1
啖 1
啜 1
啞 1
啟 1
啡 1
啤 1
啥 1
啦 1
啧 1
啪 1
啫 1
啬 1
啮 1
啰 1
啱 1
啲 1
啵 1
啶 1
啷 1
啸 1
啻 1
啼 1
啾 1
喀 1
喂 1
喃 1
善 1
喆 1
喇 1
喉 1
喊 1
喋 1
喎 1
喏 1
喔 1
喘 1
喙 1
喚 1
喜 1
喝 1
喟 1
喧 1
喪 1
喫 1
喬 1
單 1
喰 1
喱 1
喲 1
喳 1
喵 1
営 1
喷 1
喹 1
喺 1
喻 1
喽 1
嗅 1
嗆 1
嗇 1
嗎 1
嗑 1
嗒 1
嗓 1
嗔 1
嗖 1
嗚 1
嗜 1
嗝 1
嗟 1
嗡 1
嗣 1
嗤 1
嗦 1
嗨 1
嗪 1
嗬 1
嗯 1
嗰 1
嗲 1
嗳 1
嗶 1
嗷 1
嗽 1
嘀 1
嘅 1
嘆 1
嘈 1
嘉 1
嘌 1
嘍 1
嘎 1
嘔 1
嘖 1
嘗 1
嘘 1
嘚 1
嘛 1
嘜 1
嘞 1
嘟 1
嘢 1
嘣 1
嘤 1
嘧 1
嘩 1
嘭 1
嘮 1
嘯 1
嘰 1
嘱 1
嘲 1
嘴 1
嘶 1
嘸 1
嘹 1
嘻 1
嘿 1
噁 1
噌 1
噎 1
噓 1
噔 1
噗 1
噙 1
噜 1
噠 1
噢 1
噤 1
器 1
噩 1
噪 1
噬 1
噱 1
噴 1
噶 1
噸 1
噹 1
噻 1
噼 1
嚀 1
嚇 1
嚎 1
嚏 1
嚐 1
嚓 1
嚕 1
嚟 1
嚣 1
嚥 1
嚨 1
嚮 1
嚴 1
嚷 1
嚼 1
囂 1
囉 1
囊 1
囍 1
囑 1
囔 1
囗 1
囚 1
四 1
囝 1
回 1
囟 1
因 1
囡 1
团 1
団 1
囤 1
囧 1
囪 1
囫 1
园 1
困 1
囱 1
囲 1
図 1
围 1
囹 1
固 1
国 1
图 1
囿 1
圃 1
圄 1
圆 1
圈 1
國 1
圍 1
圏 1
園 1
圓 1
圖 1
團 1
圜 1
土 1
圣 1
圧 1
在 1
圩 1
圭 1
地 1
圳 1
场 1
圻 1
圾 1
址 1
坂 1
均 1
坊 1
坍 1
坎 1
坏 1
坐 1
坑 1
块 1
坚 1
坛 1
坝 1
坞 1
坟 1
坠 1
坡 1
坤 1
坦 1
坨 1
坪 1
坯 1
坳 1
坵 1
坷 1
垂 1
垃 1
垄 1
型 1
垒 1
垚 1
垛 1
垠 1
垢 1
垣 1
垦 1
垩 1
垫 1
垭 1
垮 1
垵 1
埂 1
埃 1
埋 1
城 1
埔 1
埕 1
埗 1
域 1
埠 1
埤 1
埵 1
執 1
埸 1
培 1
基 1
埼 1
堀 1
堂 1
堃 1
堅 1
堆 1
堇 1
堑 1
堕 1
堙 1
堡 1
堤 1
堪 1
堯 1
堰 1
報 1
場 1
堵 1
堺 1
堿 1
塊 1
塌 1
塑 1
塔 1
塗 1
塘 1
塚 1
塞 1
塢 1
塩 1
填 1
塬 1
塭 1
塵 1
塾 1
墀 1
境 1
墅 1
墉 1
墊 1
墒 1
墓 1
増 1
墘 1
墙 1
墜 1
增 1
墟 1
墨 1
墩 1
墮 1
墳 1
墻 1
墾 1
壁 1
壅 1
壆 1
壇 1
壊 1
壑 1
壓 1
壕 1
壘 1
壞 1
壟 1
壢 1
壤 1
壩 1
士 1
壬 1
壮 1
壯 1
声 1
売 1
壳 1
壶 1
壹 1
壺 1
壽 1
处 1
备 1
変 1
复 1
夏 1
夔 1
夕 1
外 1
夙 1
多 1
夜 1
够 1
夠 1
夢 1
夥 1
大 1
天 1
太 1
夫 1
夭 1
央 1
夯 1
失 1
头 1
夷 1
夸 1
夹 1
夺 1
夾 1
奂 1
奄 1
奇 1
奈 1
奉 1
奋 1
奎 1
奏 1
奐 1
契 1
奔 1
奕 1
奖 1
套 1
奘 1
奚 1
奠 1
奢 1
奥 1
奧 1
奪 1
奬 1
奮 1
女 1
奴 1
奶 1
奸 1
她 1
好 1
如 1
妃 1
妄 1
妆 1
妇 1
妈 1
妊 1
妍 1
妒 1
妓 1
妖 1
妘 1
妙 1
妝 1
妞 1
妣 1
妤 1
妥 1
妨 1
妩 1
妪 1
妮 1
妲 1
妳 1
妹 1
妻 1
妾 1
姆 1
姉 1
姊 1
始 1
姍 1
姐 1
姑 1
姒 1
姓 1
委 1
姗 1
姚 1
姜 1
姝 1
姣 1
姥 1
姦 1
姨 1
姪 1
姫 1
姬 1
姹 1
姻 1
姿 1
威 1
娃 1
娄 1
娅 1
娆 1
娇 1
娉 1
娑 1
娓 1
娘 1
娛 1
娜 1
娟 1
娠 1
娣 1
娥 1
娩 1
娱 1
娲 1
娴 1
娶 1
娼 1
婀 1
婁 1
婆 1
婉 1
婊 1
婕 1
婚 1
婢 1
婦 1
婧 1
婪 1
婭 1
婴 1
婵 1
婶 1
婷 1
婺 1
婿 1
媒 1
媚 1
媛 1
媞 1
媧 1
媲 1
媳 1
媽 1
媾 1
嫁 1
嫂 1
嫉 1
嫌 1
嫑 1
嫔 1
嫖 1
嫘 1
嫚 1
嫡 1
嫣 1
嫦 1
嫩 1
嫲 1
嫵 1
嫻 1
嬅 1
嬉 1
嬌 1
嬗 1
嬛 1
嬢 1
嬤 1
嬪 1
嬰 1
嬴 1
嬷 1
嬸 1
嬿 1
孀 1
孃 1
子 1
孑 1
孔 1
孕 1
孖 1
字 1
存 1
孙 1
孚 1
孛 1
孜 1
孝 1
孟 1
孢 1
季 1
孤 1
学 1
孩 1
孪 1
孫 1
孬 1
孰 1
孱 1
孳 1
孵 1
學 1
孺 1
孽 1
孿 1
宁 1
它 1
宅 1
宇 1
守 1
安 1
宋 1
完 1
宏 1
宓 1
宕 1
宗 1
官 1
宙 1
定 1
宛 1
宜 1
宝 1
实 1
実 1
宠 1
审 1
客 1
宣 1
室 1
宥 1
宦 1
宪 1
宫 1
宮 1
宰 1
害 1
宴 1
宵 1
家 1
宸 1
容 1
宽 1
宾 1
宿 1
寂 1
寄 1
寅 1
密 1
寇 1
富 1
寐 1
寒 1
寓 1
寛 1
寝 1
寞 1
察 1
寡 1
寢 1
寥 1
實 1
寧 1
寨 1
審 1
寫 1
寬 1
寮 1
寰 1
寵 1
寶 1
寸 1
对 1
寺 1
寻 1
导 1
対 1
寿 1
封 1
専 1
射 1
将 1
將 1
專 1
尉 1
尊 1
尋 1
對 1
導 1
小 1
少 1
尔 1
尕 1
尖 1
尘 1
尚 1
尝 1
尤 1
尧 1
尬 1
就 1
尴 1
尷 1
尸 1
尹 1
尺 1
尻 1
尼 1
尽 1
尾 1
尿 1
局 1
屁 1
层 1
屄 1
居 1
屆 1
屈 1
屉 1
届 1
屋 1
屌 1
屍 1
屎 1
屏 1
屐 1
屑 1
展 1
屜 1
属 1
屠 1
屡 1
屢 1
層 1
履 1
屬 1
屯 1
山 1
屹 1
屿 1
岀 1
岁 1
岂 1
岌 1
岐 1
岑 1
岔 1
岖 1
岗 1
岘 1
岙 1
岚 1
岛 1
岡 1
岩 1
岫 1
岬 1
岭 1
岱 1
岳 1
岷 1
岸 1
峇 1
峋 1
峒 1
峙 1
峡 1
峤 1
峥 1
峦 1
峨 1
峪 1
峭 1
峯 1
峰 1
峴 1
島 1
峻 1
峽 1
崁 1
崂 1
崆 1
崇 1
崎 1
崑 1
崔 1
崖 1
崗 1
崙 1
崛 1
崧 1
崩 1
崭 1
崴 1
崽 1
嵇 1
嵊 1
嵋 1
嵌 1
嵐 1
嵘 1
嵩 1
嵬 1
嵯 1
嶂 1
嶄 1
嶇 1
嶋 1
嶙 1
嶺 1
嶼 1
嶽 1
巅 1
巍 1
巒 1
巔 1
巖 1
川 1
州 1
巡 1
巢 1
工 1
左 1
巧 1
巨 1
巩 1
巫 1
差 1
己 1
已 1
巳 1
巴 1
巷 1
巻 1
巽 1
巾 1
巿 1
币 1
市 1
布 1
帅 1
帆 1
师 1
希 1
帐 1
帑 1
帕 1
帖 1
帘 1
帚 1
帛 1
帜 1
帝 1
帥 1
带 1
帧 1
師 1
席 1
帮 1
帯 1
帰 1
帳 1
帶 1
帷 1
常 1
帼 1
帽 1
幀 1
幂 1
幄 1
幅 1
幌 1
幔 1
幕 1
幟 1
幡 1
幢 1
幣 1
幫 1
干 1
平 1
年 1
并 1
幸 1
幹 1
幺 1
幻 1
幼 1
幽 1
幾 1
广 1
庁 1
広 1
庄 1
庆 1
庇 1
床 1
序 1
庐 1
库 1
应 1
底 1
庖 1
店 1
庙 1
庚 1
府 1
庞 1
废 1
庠 1
度 1
座 1
庫 1
庭 1
庵 1
庶 1
康 1
庸 1
庹 1
庾 1
廁 1
廂 1
廃 1
廈 1
廉 1
廊 1
廓 1
廖 1
廚 1
廝 1
廟 1
廠 1
廢 1
廣 1
廬 1
廳 1
延 1
廷 1
建 1
廿 1
开 1
弁 1
异 1
弃 1
弄 1
弈 1
弊 1
弋 1
式 1
弑 1
弒 1
弓 1
弔 1
引 1
弗 1
弘 1
弛 1
弟 1
张 1
弥 1
弦 1
弧 1
弩 1
弭 1
弯 1
弱 1
張 1
強 1
弹 1
强 1
弼 1
弾 1
彅 1
彆 1
彈 1
彌 1
彎 1
归 1
当 1
录 1
彗 1
彙 1
彝 1
形 1
彤 1
彥 1
彦 1
彧 1
彩 1
彪 1
彫 1
彬 1
彭 1
彰 1
影 1
彷 1
役 1
彻 1
彼 1
彿 1
往 1
征 1
径 1
待 1
徇 1
很 1
徉 1
徊 1
律 1
後 1
徐 1
徑 1
徒 1
従 1
徕 1
得 1
徘 1
徙 1
徜 1
從 1
徠 1
御 1
徨 1
復 1
循 1
徬 1
微 1
徳 1
徴 1
徵 1
德 1
徹 1
徼 1
徽 1
心 1
必 1
忆 1
忌 1
忍 1
忏 1
忐 1
忑 1
忒 1
忖 1
志 1
忘 1
忙 1
応 1
忠 1
忡 1
忤 1
忧 1
忪 1
快 1
忱 1
念 1
忻 1
忽 1
忿 1
怀 1
态 1
怂 1
怅 1
怆 1
怎 1
怏 1
怒 1
怔 1
怕 1
怖 1
怙 1
怜 1
思 1
怠 1
怡 1
急 1
怦 1
性 1
怨 1
怪 1
怯 1
怵 1
总 1
怼 1
恁 1
恃 1
恆 1
恋 1
恍 1
恐 1
恒 1
恕 1
恙 1
恚 1
恢 1
恣 1
恤 1
恥 1
恨 1
恩 1
恪 1
恫 1
恬 1
恭 1
息 1
恰 1
恳 1
恵 1
恶 1
恸 1
恺 1
恻 1
恼 1
恿 1
悄 1
悅 1
悉 1
悌 1
悍 1
悔 1
悖 1
悚 1
悟 1
悠 1
患 1
悦 1
您 1
悩 1
悪 1
悬 1
悯 1
悱 1
悲 1
悴 1
悵 1
悶 1
悸 1
悻 1
悼 1
悽 1
情 1
惆 1
惇 1
惊 1
惋 1
惑 1
惕 1
惘 1
惚 1
惜 1
惟 1
惠 1
惡 1
惦 1
惧 1
惨 1
惩 1
惫 1
惬 1
惭 1
惮 1
惯 1
惰 1
惱 1
想 1
惴 1
惶 1
惹 1
惺 1
愁 1
愆 1
愈 1
愉 1
愍 1
意 1
愕 1
愚 1
愛 1
愜 1
感 1
愣 1
愤 1
愧 1
愫 1
愷 1
愿 1
慄 1
慈 1
態 1
慌 1
慎 1
慑 1
慕 1
慘 1
慚 1
慟 1
慢 1
慣 1
慧 1
慨 1
慫 1
慮 1
慰 1
慳 1
慵 1
慶 1
慷 1
慾 1
憂 1
憊 1
憋 1
憎 1
憐 1
憑 1
憔 1
憚 1
憤 1
憧 1
憨 1
憩 1
憫 1
憬 1
憲 1
憶 1
憾 1
懂 1
懇 1
懈 1
應 1
懊 1
懋 1
懑 1
懒 1
懦 1
懲 1
懵 1
懶 1
懷 1
懸 1
懺 1
懼 1
懾 1
懿 1
戀 1
戈 1
戊 1
戌 1
戍 1
戎 1
戏 1
成 1
我 1
戒 1
戕 1
或 1
战 1
戚 1
戛 1
戟 1
戡 1
戦 1
截 1
戬 1
戮 1
戰 1
戲 1
戳 1
戴 1
戶 1
户 1
戸 1
戻 1
戾 1
房 1
所 1
扁 1
扇 1
扈 1
扉 1
手 1
才 1
扎 1
扑 1
扒 1
打 1
扔 1
払 1
托 1
扛 1
扣 1
扦 1
执 1
扩 1
扪 1
扫 1
扬 1
扭 1
扮 1
扯 1
扰 1
扱 1
扳 1
扶 1
批 1
扼 1
找 1
承 1
技 1
抄 1
抉 1
把 1
抑 1
抒 1
抓 1
投 1
抖 1
抗 1
折 1
抚 1
抛 1
抜 1
択 1
抟 1
抠 1
抡 1
抢 1
护 1
报 1
抨 1
披 1
抬 1
抱 1
抵 1
抹 1
押 1
抽 1
抿 1
拂 1
拄 1
担 1
拆 1
拇 1
拈 1
拉 1
拋 1
拌 1
拍 1
拎 1
拐 1
拒 1
拓 1
拔 1
拖 1
拗 1
拘 1
拙 1
拚 1
招 1
拜 1
拟 1
拡 1
拢 1
拣 1
拥 1
拦 1
拧 1
拨 1
择 1
括 1
拭 1
拮 1
拯 1
拱 1
拳 1
拴 1
拷 1
拼 1
拽 1
拾 1
拿 1
持 1
挂 1
指 1
挈 1
按 1
挎 1
挑 1
挖 1
挙 1
挚 1
挛 1
挝 1
挞 1
挟 1
挠 1
挡 1
挣 1
挤 1
挥 1
挨 1
挪 1
挫 1
振 1
挲 1
挹 1
挺 1
挽 1
挾 1
捂 1
捅 1
捆 1
捉 1
捋 1
捌 1
捍 1
捎 1
捏 1
捐 1
捕 1
捞 1
损 1
捡 1
换 1
捣 1
捧 1
捨 1
捩 1
据 1
捱 1
捲 1
捶 1
捷 1
捺 1
捻 1
掀 1
掂 1
掃 1
掇 1
授 1
掉 1
掌 1
掏 1
掐 1
排 1
掖 1
掘 1
掙 1
掛 1
掠 1
採 1
探 1
掣 1
接 1
控 1
推 1
掩 1
措 1
掬 1
掰 1
掲 1
掳 1
掴 1
掷 1
掸 1
掺 1
揀 1
揃 1
揄 1
揆 1
揉 1
揍 1
描 1
提 1
插 1
揖 1
揚 1
換 1
握 1
揣 1
揩 1
揪 1
揭 1
揮 1
援 1
揶 1
揸 1
揹 1
揽 1
搀 1
搁 1
搂 1
搅 1
損 1
搏 1
搐 1
搓 1
搔 1
搖 1
搗 1
搜 1
搞 1
搡 1
搪 1
搬 1
搭 1
搵 1
搶 1
携 1
搽 1
摀 1
摁 1
摄 1
摆 1
摇 1
摈 1
摊 1
摒 1
摔 1
摘 1
摞 1
摟 1
摧 1
摩 1
摯 1
摳 1
摸 1
摹 1
摺 1
摻 1
撂 1
撃 1
撅 1
撇 1
撈 1
撐 1
撑 1
撒 1
撓 1
撕 1
撚 1
撞 1
撤 1
撥 1
撩 1
撫 1
撬 1
播 1
撮 1
撰 1
撲 1
撵 1
撷 1
撸 1
撻 1
撼 1
撿 1
擀 1
擁 1
擂 1
擄 1
擅 1
擇 1
擊 1
擋 1
操 1
擎 1
擒 1
擔 1
擘 1
據 1
擞 1
擠 1
擡 1
擢 1
擦 1
擬 1
擰 1
擱 1
擲 1
擴 1
擷 1
擺 1
擼 1
擾 1
攀 1
攏 1
攒 1
攔 1
攘 1
攙 1
攜 1
攝 1
攞 1
攢 1
攣 1
攤 1
攥 1
攪 1
攫 1
攬 1
支 1
收 1
攸 1
改 1
攻 1
放 1
政 1
故 1
效 1
敌 1
敍 1
敎 1
敏 1
救 1
敕 1
敖 1
敗 1
敘 1
教 1
敛 1
敝 1
敞 1
敢 1
散 1
敦 1
敬 1
数 1
敲 1
整 1
敵 1
敷 1
數 1
斂 1
斃 1
文 1
斋 1
斌 1
斎 1
斐 1
斑 1
斓 1
斗 1
料 1
斛 1
斜 1
斟 1
斡 1
斤 1
斥 1
斧 1
斩 1
斫 1
斬 1
断 1
斯 1
新 1
斷 1
方 1
於 1
施 1
旁 1
旃 1
旅 1
旋 1
旌 1
旎 1
族 1
旖 1
旗 1
无 1
既 1
日 1
旦 1
旧 1
旨 1
早 1
旬 1
旭 1
旮 1
旱 1
时 1
旷 1
旺 1
旻 1
昀 1
昂 1
昆 1
昇 1
昉 1
昊 1
昌 1
明 1
昏 1
易 1
昔 1
昕 1
昙 1
星 1
映 1
春 1
昧 1
昨 1
昭 1
是 1
昱 1
昴 1
昵 1
昶 1
昼 1
显 1
晁 1
時 1
晃 1
晉 1
晋 1
晌 1
晏 1
晒 1
晓 1
晔 1
晕 1
晖 1
晗 1
晚 1
晝 1
晞 1
晟 1
晤 1
晦 1
晨 1
晩 1
普 1
景 1
晰 1
晴 1
晶 1
晷 1
智 1
晾 1
暂 1
暄 1
暇 1
暈 1
暉 1
暌 1
暐 1
暑 1
暖 1
暗 1
暝 1
暢 1
暧 1
暨 1
暫 1
暮 1
暱 1
暴 1
暸 1
暹 1
曄 1
曆 1
曇 1
曉 1
曖 1
曙 1
曜 1
曝 1
曠 1
曦 1
曬 1
曰 1
曲 1
曳 1
更 1
書 1
曹 1
曼 1
曾 1
替 1
最 1
會 1
月 1
有 1
朋 1
服 1
朐 1
朔 1
朕 1
朗 1
望 1
朝 1
期 1
朦 1
朧 1
木 1
未 1
末 1
本 1
札 1
朮 1
术 1
朱 1
朴 1
朵 1
机 1
朽 1
杀 1
杂 1
权 1
杆 1
杈 1
杉 1
李 1
杏 1
材 1
村 1
杓 1
杖 1
杜 1
杞 1
束 1
杠 1
条 1
来 1
杨 1
杭 1
杯 1
杰 1
東 1
杳 1
杵 1
杷 1
杼 1
松 1
板 1
极 1
构 1
枇 1
枉 1
枋 1
析 1
枕 1
林 1
枚 1
果 1
枝 1
枢 1
枣 1
枪 1
枫 1
枭 1
枯 1
枰 1
枱 1
枳 1
架 1
枷 1
枸 1
柄 1
柏 1
某 1
柑 1
柒 1
染 1
柔 1
柘 1
柚 1
柜 1
柞 1
柠 1
柢 1
查 1
柩 1
柬 1
柯 1
柱 1
柳 1
柴 1
柵 1
査 1
柿 1
栀 1
栃 1
栄 1
栅 1
标 1
栈 1
栉 1
栋 1
栎 1
栏 1
树 1
栓 1
栖 1
栗 1
校 1
栩 1
株 1
样 1
核 1
根 1
格 1
栽 1
栾 1
桀 1
桁 1
桂 1
桃 1
桅 1
框 1
案 1
桉 1
桌 1
桎 1
桐 1
桑 1
桓 1
桔 1
桜 1
桠 1
桡 1
桢 1
档 1
桥 1
桦 1
桧 1
桨 1
桩 1
桶 1
桿 1
梁 1
梅 1
梆 1
梏 1
梓 1
梗 1
條 1
梟 1
梢 1
梦 1
梧 1
梨 1
梭 1
梯 1
械 1
梳 1
梵 1
梶 1
检 1
棂 1
棄 1
棉 1
棋 1
棍 1
棒 1
棕 1
棗 1
棘 1
棚 1
棟 1
棠 1
棣 1
棧 1
森 1
棱 1
棲 1
棵 1
棹 1
棺 1
椁 1
椅 1
椋 1
植 1
椎 1
椒 1
検 1
椪 1
椭 1
椰 1
椹 1
椽 1
椿 1
楂 1
楊 1
楓 1
楔 1
楚 1
楝 1
楞 1
楠 1
楣 1
楨 1
楫 1
業 1
楮 1
極 1
楷 1
楸 1
楹 1
楼 1
楽 1
概 1
榄 1
榆 1
榈 1
榉 1
榔 1
榕 1
榖 1
榛 1
榜 1
榨 1
榫 1
榭 1
榮 1
榱 1
榴 1
榷 1
榻 1
槁 1
槃 1
構 1
槌 1
槍 1
槎 1
槐 1
槓 1
様 1
槛 1
槟 1
槤 1
槭 1
槲 1
槳 1
槻 1
槽 1
槿 1
樁 1
樂 1
樊 1
樑 1
樓 1
標 1
樞 1
樟 1
模 1
樣 1
権 1
横 1
樫 1
樯 1
樱 1
樵 1
樸 1
樹 1
樺 1
樽 1
樾 1
橄 1
橇 1
橋 1
橐 1
橘 1
橙 1
機 1
橡 1
橢 1
橫 1
橱 1
橹 1
橼 1
檀 1
檄 1
檎 1
檐 1
檔 1
檗 1
檜 1
檢 1
檬 1
檯 1
檳 1
檸 1
檻 1
櫃 1
櫚 1
櫛 1
櫥 1
櫸 1
櫻 1
欄 1
權 1
欒 1
欖 1
欠 1
次 1
欢 1
欣 1
欧 1
欲 1
欸 1
欺 1
欽 1
款 1
歆 1
歇 1
歉 1
歌 1
歎 1
歐 1
歓 1
歙 1
歛 1
歡 1
止 1
正 1
此 1
步 1
武 1
歧 1
歩 1
歪 1
歯 1
歲 1
歳 1
歴 1
歷 1
歸 1
歹 1
死 1
歼 1
殁 1
殃 1
殆 1
殇 1
殉 1
殊 1
残 1
殒 1
殓 1
殖 1
殘 1
殞 1
殡 1
殤 1
殭 1
殯 1
殲 1
殴 1
段 1
殷 1
殺 1
殼 1
殿 1
毀 1
毁 1
毂 1
毅 1
毆 1
毋 1
母 1
毎 1
每 1
毒 1
毓 1
比 1
毕 1
毗 1
毘 1
毙 1
毛 1
毡 1
毫 1
毯 1
毽 1
氈 1
氏 1
氐 1
民 1
氓 1
气 1
氖 1
気 1
氙 1
氛 1
氟 1
氡 1
氢 1
氣 1
氤 1
氦 1
氧 1
氨 1
氪 1
氫 1
氮 1
氯 1
氰 1
氲 1
水 1
氷 1
永 1
氹 1
氾 1
汀 1
汁 1
求 1
汆 1
汇 1
汉 1
汎 1
汐 1
汕 1
汗 1
汙 1
汛 1
汝 1
汞 1
江 1
池 1
污 1
汤 1
汨 1
汩 1
汪 1
汰 1
汲 1
汴 1
汶 1
汹 1
決 1
汽 1
汾 1
沁 1
沂 1
沃 1
沅 1
沈 1
沉 1
沌 1
沏 1
沐 1
沒 1
沓 1
沖 1
沙 1
沛 1
沟 1
没 1
沢 1
沣 1
沥 1
沦 1
沧 1
沪 1
沫 1
沭 1
沮 1
沱 1
河 1
沸 1
油 1
治 1
沼 1
沽 1
沾 1
沿 1
況 1
泄 1
泉 1
泊 1
泌 1
泓 1
法 1
泗 1
泛 1
泞 1
泠 1
泡 1
波 1
泣 1
泥 1
注 1
泪 1
泫 1
泮 1
泯 1
泰 1
泱 1
泳 1
泵 1
泷 1
泸 1
泻 1
泼 1
泽 1
泾 1
洁 1
洄 1
洋 1
洒 1
洗 1
洙 1
洛 1
洞 1
津 1
洩 1
洪 1
洮 1
洱 1
洲 1
洵 1
洶 1
洸 1
洹 1
活 1
洼 1
洽 1
派 1
流 1
浃 1
浄 1
浅 1
浆 1
浇 1
浊 1
测 1
济 1
浏 1
浑 1
浒 1
浓 1
浔 1
浙 1
浚 1
浜 1
浣 1
浦 1
浩 1
浪 1
浬 1
浮 1
浯 1
浴 1
海 1
浸 1
涂 1
涅 1
涇 1
消 1
涉 1
涌 1
涎 1
涓 1
涔 1
涕 1
涙 1
涛 1
涝 1
涞 1
涟 1
涠 1
涡 1
涣 1
涤 1
润 1
涧 1
涨 1
涩 1
涪 1
涮 1
涯 1
液 1
涵 1
涸 1
涼 1
涿 1
淀 1
淄 1
淅 1
淆 1
淇 1
淋 1
淌 1
淑 1
淒 1
淖 1
淘 1
淙 1
淚 1
淞 1
淡 1
淤 1
淦 1
淨 1
淩 1
淪 1
淫 1
淬 1
淮 1
深 1
淳 1
淵 1
混 1
淹 1
淺 1
添 1
淼 1
清 1
済 1
渉 1
渊 1
渋 1
渍 1
渎 1
渐 1
渔 1
渗 1
渙 1
渚 1
減 1
渝 1
渠 1
渡 1
渣 1
渤 1
渥 1
渦 1
温 1
測 1
渭 1
港 1
渲 1
渴 1
游 1
渺 1
渾 1
湃 1
湄 1
湊 1
湍 1
湖 1
湘 1
湛 1
湟 1
湧 1
湫 1
湮 1
湯 1
湳 1
湾 1
湿 1
満 1
溃 1
溅 1
溉 1
溏 1
源 1
準 1
溜 1
溝 1
溟 1
溢 1
溥 1
溧 1
溪 1
溫 1
溯 1
溱 1
溴 1
溶 1
溺 1
溼 1
滁 1
滂 1
滄 1
滅 1
滇 1
滋 1
滌 1
滑 1
滓 1
滔 1
滕 1
滙 1
滚 1
滝 1
滞 1
滟 1
满 1
滢 1
滤 1
滥 1
滦 1
滨 1
滩 1
滬 1
滯 1
滲 1
滴 1
滷 1
滸 1
滾 1
滿 1
漁 1
漂 1
漆 1
漉 1
漏 1
漓 1
演 1
漕 1
漠 1
漢 1
漣 1
漩 1
漪 1
漫 1
漬 1
漯 1
漱 1
漲 1
漳 1
漸 1
漾 1
漿 1
潆 1
潇 1
潋 1
潍 1
潑 1
潔 1
潘 1
潛 1
潜 1
潞 1
潟 1
潢 1
潤 1
潦 1
潧 1
潭 1
潮 1
潰 1
潴 1
潸 1
潺 1
潼 1
澀 1
澄 1
澆 1
澈 1
澍 1
澎 1
澗 1
澜 1
澡 1
澤 1
澧 1
澱 1
澳 1
澹 1
激 1
濁 1
濂 1
濃 1
濑 1
濒 1
濕 1
濘 1
濛 1
濟 1
濠 1
濡 1
濤 1
濫 1
濬 1
濮 1
濯 1
濱 1
濺 1
濾 1
瀅 1
瀆 1
瀉 1
瀋 1
瀏 1
瀑 1
瀕 1
瀘 1
瀚 1
瀛 1
瀝 1
瀞 1
瀟 1
瀧 1
瀨 1
瀬 1
瀰 1
瀾 1
灌 1
灏 1
灑 1
灘 1
灝 1
灞 1
灣 1
火 1
灬 1
灭 1
灯 1
灰 1
灵 1
灶 1
灸 1
灼 1
災 1
灾 1
灿 1
炀 1
炁 1
炅 1
炉 1
炊 1
炎 1
炒 1
炔 1
炕 1
炖 1
炙 1
炜 1
炫 1
炬 1
炭 1
炮 1
炯 1
炳 1
炷 1
炸 1
点 1
為 1
炼 1
炽 1
烁 1
烂 1
烃 1
烈 1
烊 1
烏 1
烘 1
烙 1
烛 1
烟 1
烤 1
烦 1
烧 1
烨 1
烩 1
烫 1
烬 1
热 1
烯 1
烷 1
烹 1
烽 1
焉 1
焊 1
焕 1
焖 1
焗 1
焘 1
焙 1
焚 1
焜 1
無 1
焦 1
焯 1
焰 1
焱 1
然 1
焼 1
煅 1
煉 1
煊 1
煌 1
煎 1
煒 1
煖 1
煙 1
煜 1
煞 1
煤 1
煥 1
煦 1
照 1
煨 1
煩 1
煮 1
煲 1
煸 1
煽 1
熄 1
熊 1
熏 1
熒 1
熔 1
熙 1
熟 1
熠 1
熨 1
熬 1
熱 1
熵 1
熹 1
熾 1
燁 1
燃 1
燄 1
燈 1
燉 1
燊 1
燎 1
燒 1
燔 1
燕 1
燙 1
燜 1
營 1
燥 1
燦 1
燧 1
燭 1
燮 1
燴 1
燻 1
燼 1
燿 1
爆 1
爍 1
爐 1
爛 1
爪 1
爬 1
爭 1
爰 1
爱 1
爲 1
爵 1
父 1
爷 1
爸 1
爹 1
爺 1
爻 1
爽 1
爾 1
牆 1
片 1
版 1
牌 1
牍 1
牒 1
牙 1
牛 1
牝 1
牟 1
牠 1
牡 1
牢 1
牦 1
牧 1
物 1
牯 1
牲 1
牴 1
牵 1
特 1
牺 1
牽 1
犀 1
犁 1
犄 1
犊 1
犍 1
犒 1
犢 1
犧 1
犬 1
犯 1
状 1
犷 1
犸 1
犹 1
狀 1
狂 1
狄 1
狈 1
狎 1
狐 1
狒 1
狗 1
狙 1
狞 1
狠 1
狡 1
狩 1
独 1
狭 1
狮 1
狰 1
狱 1
狸 1
狹 1
狼 1
狽 1
猎 1
猕 1
猖 1
猗 1
猙 1
猛 1
猜 1
猝 1
猥 1
猩 1
猪 1
猫 1
猬 1
献 1
猴 1
猶 1
猷 1
猾 1
猿 1
獄 1
獅 1
獎 1
獐 1
獒 1
獗 1
獠 1
獣 1
獨 1
獭 1
獰 1
獲 1
獵 1
獷 1
獸 1
獺 1
獻 1
獼 1
獾 1
玄 1
率 1
玉 1
王 1
玑 1
玖 1
玛 1
玟 1
玠 1
玥 1
玩 1
玫 1
玮 1
环 1
现 1
玲 1
玳 1
玷 1
玺 1
玻 1
珀 1
珂 1
珅 1
珈 1
珉 1
珊 1
珍 1
珏 1
珐 1
珑 1
珙 1
珞 1
珠 1
珣 1
珥 1
珩 1
珪 1
班 1
珮 1
珲 1
珺 1
現 1
球 1
琅 1
理 1
琇 1
琉 1
琊 1
琍 1
琏 1
琐 1
琛 1
琢 1
琥 1
琦 1
琨 1
琪 1
琬 1
琮 1
琰 1
琲 1
琳 1
琴 1
琵 1
琶 1
琺 1
琼 1
瑀 1
瑁 1
瑄 1
瑋 1
瑕 1
瑗 1
瑙 1
瑚 1
瑛 1
瑜 1
瑞 1
瑟 1
瑠 1
瑣 1
瑤 1
瑩 1
瑪 1
瑯 1
瑰 1
瑶 1
瑾 1
璀 1
璁 1
璃 1
璇 1
璉 1
璋 1
璎 1
璐 1
璜 1
璞 1
璟 1
璧 1
璨 1
環 1
璽 1
璿 1
瓊 1
瓏 1
瓒 1
瓜 1
瓢 1
瓣 1
瓤 1
瓦 1
瓮 1
瓯 1
瓴 1
瓶 1
瓷 1
甄 1
甌 1
甕 1
甘 1
甙 1
甚 1
甜 1
生 1
產 1
産 1
甥 1
甦 1
用 1
甩 1
甫 1
甬 1
甭 1
甯 1
田 1
由 1
甲 1
申 1
电 1
男 1
甸 1
町 1
画 1
甾 1
畀 1
畅 1
界 1
畏 1
畑 1
畔 1
留 1
畜 1
畝 1
畢 1
略 1
畦 1
番 1
畫 1
異 1
畲 1
畳 1
畴 1
當 1
畸 1
畹 1
畿 1
疆 1
疇 1
疊 1
疏 1
疑 1
疔 1
疖 1
疗 1
疙 1
疚 1
疝 1
疟 1
疡 1
疣 1
疤 1
疥 1
疫 1
疮 1
疯 1
疱 1
疲 1
疳 1
疵 1
疸 1
疹 1
疼 1
疽 1
疾 1
痂 1
病 1
症 1
痈 1
痉 1
痊 1
痍 1
痒 1
痔 1
痕 1
痘 1
痙 1
痛 1
痞 1
痠 1
痢 1
痣 1
痤 1
痧 1
痨 1
痪 1
痫 1
痰 1
痱 1
痴 1
痹 1
痺 1
痼 1
痿 1
瘀 1
瘁 1
瘋 1
瘍 1
瘓 1
瘘 1
瘙 1
瘟 1
瘠 1
瘡 1
瘢 1
瘤 1
瘦 1
瘧 1
瘩 1
瘪 1
瘫 1
瘴 1
瘸 1
瘾 1
療 1
癇 1
癌 1
癒 1
癖 1
癜 1
癞 1
癡 1
癢 1
癣 1
癥 1
癫 1
癬 1
癮 1
癱 1
癲 1
癸 1
発 1
登 1
發 1
白 1
百 1
皂 1
的 1
皆 1
皇 1
皈 1
皋 1
皎 1
皑 1
皓 1
皖 1
皙 1
皚 1
皮 1
皰 1
皱 1
皴 1
皺 1
皿 1
盂 1
盃 1
盅 1
盆 1
盈 1
益 1
盎 1
盏 1
盐 1
监 1
盒 1
盔 1
盖 1
盗 1
盘 1
盛 1
盜 1
盞 1
盟 1
盡 1
監 1
盤 1
盥 1
盧 1
盪 1
目 1
盯 1
盱 1
盲 1
直 1
相 1
盹 1
盼 1
盾 1
省 1
眈 1
眉 1
看 1
県 1
眙 1
眞 1
真 1
眠 1
眦 1
眨 1
眩 1
眯 1
眶 1
眷 1
眸 1
眺 1
眼 1
眾 1
着 1
睁 1
睇 1
睏 1
睐 1
睑 1
睛 1
睜 1
睞 1
睡 1
睢 1
督 1
睥 1
睦 1
睨 1
睪 1
睫 1
睬 1
睹 1
睽 1
睾 1
睿 1
瞄 1
瞅 1
瞇 1
瞋 1
瞌 1
瞎 1
瞑 1
瞒 1
瞓 1
瞞 1
瞟 1
瞠 1
瞥 1
瞧 1
瞩 1
瞪 1
瞬 1
瞭 1
瞰 1
瞳 1
瞻 1
瞼 1
瞿 1
矇 1
矍 1
矗 1
矚 1
矛 1
矜 1
矢 1
矣 1
知 1
矩 1
矫 1
短 1
矮 1
矯 1
石 1
矶 1
矽 1
矾 1
矿 1
码 1
砂 1
砌 1
砍 1
砒 1
研 1
砖 1
砗 1
砚 1
砝 1
砣 1
砥 1
砧 1
砭 1
砰 1
砲 1
破 1
砷 1
砸 1
砺 1
砼 1
砾 1
础 1
硅 1
硐 1
硒 1
硕 1
硝 1
硫 1
硬 1
确 1
硯 1
硼 1
碁 1
碇 1
碉 1
碌 1
碍 1
碎 1
碑 1
碓 1
碗 1
碘 1
碚 1
碛 1
碟 1
碣 1
碧 1
碩 1
碰 1
碱 1
碳 1
碴 1
確 1
碼 1
碾 1
磁 1
磅 1
磊 1
磋 1
磐 1
磕 1
磚 1
磡 1
磨 1
磬 1
磯 1
磲 1
磷 1
磺 1
礁 1
礎 1
礙 1
礡 1
礦 1
礪 1
礫 1
礴 1
示 1
礼 1
社 1
祀 1
祁 1
祂 1
祇 1
祈 1
祉 1
祎 1
祐 1
祕 1
祖 1
祗 1
祚 1
祛 1
祜 1
祝 1
神 1
祟 1
祠 1
祢 1
祥 1
票 1
祭 1
祯 1
祷 1
祸 1
祺 1
祿 1
禀 1
禁 1
禄 1
禅 1
禍 1
禎 1
福 1
禛 1
禦 1
禧 1
禪 1
禮 1
禱 1
禹 1
禺 1
离 1
禽 1
禾 1
禿 1
秀 1
私 1
秃 1
秆 1
秉 1
秋 1
种 1
科 1
秒 1
秘 1
租 1
秣 1
秤 1
秦 1
秧 1
秩 1
秭 1
积 1
称 1
秸 1
移 1
秽 1
稀 1
稅 1
程 1
稍 1
税 1
稔 1
稗 1
稚 1
稜 1
稞 1
稟 1
稠 1
稣 1
種 1
稱 1
稲 1
稳 1
稷 1
稹 1
稻 1
稼 1
稽 1
稿 1
穀 1
穂 1
穆 1
穌 1
積 1
穎 1
穗 1
穢 1
穩 1
穫 1
穴 1
究 1
穷 1
穹 1
空 1
穿 1
突 1
窃 1
窄 1
窈 1
窍 1
窑 1
窒 1
窓 1
窕 1
窖 1
窗 1
窘 1
窜 1
窝 1
窟 1
窠 1
窥 1
窦 1
窨 1
窩 1
窪 1
窮 1
窯 1
窺 1
窿 1
竄 1
竅 1
竇 1
竊 1
立 1
竖 1
站 1
竜 1
竞 1
竟 1
章 1
竣 1
童 1
竭 1
端 1
競 1
竹 1
竺 1
竽 1
竿 1
笃 1
笆 1
笈 1
笋 1
笏 1
笑 1
笔 1
笙 1
笛 1
笞 1
笠 1
符 1
笨 1
第 1
笹 1
笺 1
笼 1
筆 1
等 1
筊 1
筋 1
筍 1
筏 1
筐 1
筑 1
筒 1
答 1
策 1
筛 1
筝 1
筠 1
筱 1
筲 1
筵 1
筷 1
筹 1
签 1
简 1
箇 1
箋 1
箍 1
箏 1
箐 1
箔 1
箕 1
算 1
箝 1
管 1
箩 1
箫 1
箭 1
箱 1
箴 1
箸 1
節 1
篁 1
範 1
篆 1
篇 1
築 1
篑 1
篓 1
篙 1
篝 1
篠 1
篡 1
篤 1
篩 1
篪 1
篮 1
篱 1
篷 1
簇 1
簌 1
簍 1
簡 1
簦 1
簧 1
簪 1
簫 1
簷 1
簸 1
簽 1
簾 1
簿 1
籁 1
籃 1
籌 1
籍 1
籐 1
籟 1
籠 1
籤 1
籬 1
籮 1
籲 1
米 1
类 1
籼 1
籽 1
粄 1
粉 1
粑 1
粒 1
粕 1
粗 1
粘 1
粟 1
粤 1
粥 1
粧 1
粪 1
粮 1
粱 1
粲 1
粳 1
粵 1
粹 1
粼 1
粽 1
精 1
粿 1
糅 1
糊 1
糍 1
糕 1
糖 1
糗 1
糙 1
糜 1
糞 1
糟 1
糠 1
糧 1
糬 1
糯 1
糰 1
糸 1
系 1
糾 1
紀 1
紂 1
約 1
紅 1
紉 1
紊 1
紋 1
納 1
紐 1
紓 1
純 1
紗 1
紘 1
紙 1
級 1
紛 1
紜 1
素 1
紡 1
索 1
紧 1
紫 1
紮 1
累 1
細 1
紳 1
紹 1
紺 1
終 1
絃 1
組 1
絆 1
経 1
結 1
絕 1
絞 1
絡 1
絢 1
給 1
絨 1
絮 1
統 1
絲 1
絳 1
絵 1
絶 1
絹 1
綁 1
綏 1
綑 1
經 1
継 1
続 1
綜 1
綠 1
綢 1
綦 1
綫 1
綬 1
維 1
綱 1
網 1
綴 1
綵 1
綸 1
綺 1
綻 1
綽 1
綾 1
綿 1
緊 1
緋 1
総 1
緑 1
緒 1
緘 1
線 1
緝 1
緞 1
締 1
緣 1
編 1
緩 1
緬 1
緯 1
練 1
緹 1
緻 1
縁 1
縄 1
縈 1
縛 1
縝 1
縣 1
縫 1
縮 1
縱 1
縴 1
縷 1
總 1
績 1
繁 1
繃 1
繆 1
繇 1
繋 1
織 1
繕 1
繚 1
繞 1
繡 1
繩 1
繪 1
繫 1
繭 1
繳 1
繹 1
繼 1
繽 1
纂 1
續 1
纍 1
纏 1
纓 1
纔 1
纖 1
纜 1
纠 1
红 1
纣 1
纤 1
约 1
级 1
纨 1
纪 1
纫 1
纬 1
纭 1
纯 1
纰 1
纱 1
纲 1
纳 1
纵 1
纶 1
纷 1
纸 1
纹 1
纺 1
纽 1
纾 1
线 1
绀 1
练 1
组 1
绅 1
细 1
织 1
终 1
绊 1
绍 1
绎 1
经 1
绑 1
绒 1
结 1
绔 1
绕 1
绘 1
给 1
绚 1
绛 1
络 1
绝 1
绞 1
统 1
绡 1
绢 1
绣 1
绥 1
绦 1
继 1
绩 1
绪 1
绫 1
续 1
绮 1
绯 1
绰 1
绳 1
维 1
绵 1
绶 1
绷 1
绸 1
绻 1
综 1
绽 1
绾 1
绿 1
缀 1
缄 1
缅 1
缆 1
缇 1
缈 1
缉 1
缎 1
缓 1
缔 1
缕 1
编 1
缘 1
缙 1
缚 1
缜 1
缝 1
缠 1
缢 1
缤 1
缥 1
缨 1
缩 1
缪 1
缭 1
缮 1
缰 1
缱 1
缴 1
缸 1
缺 1
缽 1
罂 1
罄 1
罌 1
罐 1
网 1
罔 1
罕 1
罗 1
罚 1
罡 1
罢 1
罩 1
罪 1
置 1
罰 1
署 1
罵 1
罷 1
罹 1
羁 1
羅 1
羈 1
羊 1
羌 1
美 1
羔 1
羚 1
羞 1
羟 1
羡 1
羣 1
群 1
羥 1
羧 1
羨 1
義 1
羯 1
羲 1
羸 1
羹 1
羽 1
羿 1
翁 1
翅 1
翊 1
翌 1
翎 1
習 1
翔 1
翘 1
翟 1
翠 1
翡 1
翦 1
翩 1
翰 1
翱 1
翳 1
翹 1
翻 1
翼 1
耀 1
老 1
考 1
耄 1
者 1
耆 1
耋 1
而 1
耍 1
耐 1
耒 1
耕 1
耗 1
耘 1
耙 1
耦 1
耨 1
耳 1
耶 1
耷 1
耸 1
耻 1
耽 1
耿 1
聂 1
聆 1
聊 1
聋 1
职 1
聒 1
联 1
聖 1
聘 1
聚 1
聞 1
聪 1
聯 1
聰 1
聲 1
聳 1
聴 1
聶 1
職 1
聽 1
聾 1
聿 1
肃 1
肄 1
肅 1
肆 1
肇 1
肉 1
肋 1
肌 1
肏 1
肓 1
肖 1
肘 1
肚 1
肛 1
肝 1
肠 1
股 1
肢 1
肤 1
肥 1
肩 1
肪 1
肮 1
肯 1
肱 1
育 1
肴 1
肺 1
肽 1
肾 1
肿 1
胀 1
胁 1
胃 1
胄 1
胆 1
背 1
胍 1
胎 1
胖 1
胚 1
胛 1
胜 1
胝 1
胞 1
胡 1
胤 1
胥 1
胧 1
胫 1
胭 1
胯 1
胰 1
胱 1
胳 1
胴 1
胶 1
胸 1
胺 1
能 1
脂 1
脅 1
脆 1
脇 1
脈 1
脉 1
脊 1
脍 1
脏 1
脐 1
脑 1
脓 1
脖 1
脘 1
脚 1
脛 1
脣 1
脩 1
脫 1
脯 1
脱 1
脲 1
脳 1
脸 1
脹 1
脾 1
腆 1
腈 1
腊 1
腋 1
腌 1
腎 1
腐 1
腑 1
腓 1
腔 1
腕 1
腥 1
腦 1
腩 1
腫 1
腭 1
腮 1
腰 1
腱 1
腳 1
腴 1
腸 1
腹 1
腺 1
腻 1
腼 1
腾 1
腿 1
膀 1
膈 1
膊 1
膏 1
膑 1
膘 1
膚 1
膛 1
膜 1
膝 1
膠 1
膦 1
膨 1
膩 1
膳 1
膺 1
膻 1
膽 1
膾 1
膿 1
臀 1
臂 1
臃 1
臆 1
臉 1
臊 1
臍 1
臓 1
臘 1
臟 1
臣 1
臥 1
臧 1
臨 1
自 1
臬 1
臭 1
至 1
致 1
臺 1
臻 1
臼 1
臾 1
舀 1
舂 1
舅 1
舆 1
與 1
興 1
舉 1
舊 1
舌 1
舍 1
舎 1
舐 1
舒 1
舔 1
舖 1
舗 1
舛 1
舜 1
舞 1
舟 1
航 1
舫 1
般 1
舰 1
舱 1
舵 1
舶 1
舷 1
舸 1
船 1
舺 1
舾 1
艇 1
艋 1
艘 1
艙 1
艦 1
艮 1
良 1
艰 1
艱 1
色 1
艳 1
艷 1
艹 1
艺 1
艾 1
节 1
芃 1
芈 1
芊 1
芋 1
芍 1
芎 1
芒 1
芙 1
芜 1
芝 1
芡 1
芥 1
芦 1
芩 1
芪 1
芫 1
芬 1
芭 1
芮 1
芯 1
花 1
芳 1
芷 1
芸 1
芹 1
芻 1
芽 1
芾 1
苁 1
苄 1
苇 1
苋 1
苍 1
苏 1
苑 1
苒 1
苓 1
苔 1
苕 1
苗 1
苛 1
苜 1
苞 1
苟 1
苡 1
苣 1
若 1
苦 1
苫 1
苯 1
英 1
苷 1
苹 1
苻 1
茁 1
茂 1
范 1
茄 1
茅 1
茉 1
茎 1
茏 1
茗 1
茜 1
茧 1
茨 1
茫 1
茬 1
茭 1
茯 1
茱 1
茲 1
茴 1
茵 1
茶 1
茸 1
茹 1
茼 1
荀 1
荃 1
荆 1
草 1
荊 1
荏 1
荐 1
荒 1
荔 1
荖 1
荘 1
荚 1
荞 1
荟 1
荠 1
荡 1
荣 1
荤 1
荥 1
荧 1
荨 1
荪 1
荫 1
药 1
荳 1
荷 1
荸 1
荻 1
荼 1
荽 1
莅 1
莆 1
莉 1
莊 1
莎 1
莒 1
莓 1
莖 1
莘 1
莞 1
莠 1
莢 1
莧 1
莪 1
莫 1
莱 1
莲 1
莴 1
获 1
莹 1
莺 1
莽 1
莿 1
菀 1
菁 1
菅 1
菇 1
菈 1
菊 1
菌 1
菏 1
菓 1
菖 1
菘 1
菜 1
菟 1
菠 1
菡 1
菩 1
華 1
菱 1
菲 1
菸 1
菽 1
萁 1
萃 1
萄 1
萊 1
萋 1
萌 1
萍 1
萎 1
萘 1
萝 1
萤 1
营 1
萦 1
萧 1
萨 1
萩 1
萬 1
萱 1
萵 1
萸 1
萼 1
落 1
葆 1
葉 1
著 1
葚 1
葛 1
葡 1
董 1
葦 1
葩 1
葫 1
葬 1
葭 1
葯 1
葱 1
葳 1
葵 1
葷 1
葺 1
蒂 1
蒋 1
蒐 1
蒔 1
蒙 1
蒜 1
蒞 1
蒟 1
蒡 1
蒨 1
蒲 1
蒸 1
蒹 1
蒻 1
蒼 1
蒿 1
蓁 1
蓄 1
蓆 1
蓉 1
蓋 1
蓑 1
蓓 1
蓖 1
蓝 1
蓟 1
蓦 1
蓬 1
蓮 1
蓼 1
蓿 1
蔑 1
蔓 1
蔔 1
蔗 1
蔘 1
蔚 1
蔡 1
蔣 1
蔥 1
蔫 1
蔬 1
蔭 1
蔵 1
蔷 1
蔺 1
蔻 1
蔼 1
蔽 1
蕁 1
蕃 1
蕈 1
蕉 1
蕊 1
蕎 1
蕙 1
蕤 1
蕨 1
蕩 1
蕪 1
蕭 1
蕲 1
蕴 1
蕻 1
蕾 1
薄 1
薅 1
薇 1
薈 1
薊 1
薏 1
薑 1
薔 1
薙 1
薛 1
薦 1
薨 1
薩 1
薪 1
薬 1
薯 1
薰 1
薹 1
藉 1
藍 1
藏 1
藐 1
藓 1
藕 1
藜 1
藝 1
藤 1
藥 1
藩 1
藹 1
藻 1
藿 1
蘆 1
蘇 1
蘊 1
蘋 1
蘑 1
蘚 1
蘭 1
蘸 1
蘼 1
蘿 1
虎 1
虏 1
虐 1
虑 1
虔 1
處 1
虚 1
虛 1
虜 1
虞 1
號 1
虢 1
虧 1
虫 1
虬 1
虱 1
虹 1
虻 1
虽 1
虾 1
蚀 1
蚁 1
蚂 1
蚊 1
蚌 1
蚓 1
蚕 1
蚜 1
蚝 1
蚣 1
蚤 1
蚩 1
蚪 1
蚯 1
蚱 1
蚵 1
蛀 1
蛆 1
蛇 1
蛊 1
蛋 1
蛎 1
蛐 1
蛔 1
蛙 1
蛛 1
蛟 1
蛤 1
蛭 1
蛮 1
蛰 1
蛳 1
蛹 1
蛻 1
蛾 1
蜀 1
蜂 1
蜃 1
蜆 1
蜇 1
蜈 1
蜊 1
蜍 1
蜒 1
蜓 1
蜕 1
蜗 1
蜘 1
蜚 1
蜜 1
蜡 1
蜢 1
蜥 1
蜱 1
蜴 1
蜷 1
蜻 1
蜿 1
蝇 1
蝈 1
蝉 1
蝌 1
蝎 1
蝕 1
蝗 1
蝙 1
蝟 1
蝠 1
蝦 1
蝨 1
蝴 1
蝶 1
蝸 1
蝼 1
螂 1
螃 1
融 1
螞 1
螢 1
螨 1
螯 1
螳 1
螺 1
蟀 1
蟄 1
蟆 1
蟋 1
蟎 1
蟑 1
蟒 1
蟠 1
蟬 1
蟲 1
蟹 1
蟻 1
蟾 1
蠅 1
蠍 1
蠔 1
蠕 1
蠛 1
蠟 1
蠡 1
蠢 1
蠣 1
蠱 1
蠶 1
蠹 1
蠻 1
血 1
衄 1
衅 1
衆 1
行 1
衍 1
術 1
衔 1
街 1
衙 1
衛 1
衝 1
衞 1
衡 1
衢 1
衣 1
补 1
表 1
衩 1
衫 1
衬 1
衮 1
衰 1
衲 1
衷 1
衹 1
衾 1
衿 1
袁 1
袂 1
袄 1
袅 1
袈 1
袋 1
袍 1
袒 1
袖 1
袜 1
袞 1
袤 1
袪 1
被 1
袭 1
袱 1
裁 1
裂 1
装 1
裆 1
裊 1
裏 1
裔 1
裕 1
裘 1
裙 1
補 1
裝 1
裟 1
裡 1
裤 1
裨 1
裱 1
裳 1
裴 1
裸 1
裹 1
製 1
裾 1
褂 1
複 1
褐 1
褒 1
褓 1
褔 1
褚 1
褥 1
褪 1
褫 1
褲 1
褶 1
褻 1
襁 1
襄 1
襟 1
襠 1
襪 1
襬 1
襯 1
襲 1
西 1
要 1
覃 1
覆 1
覇 1
見 1
規 1
覓 1
視 1
覚 1
覦 1
覧 1
親 1
覬 1
観 1
覷 1
覺 1
覽 1
觀 1
见 1
观 1
规 1
觅 1
视 1
览 1
觉 1
觊 1
觎 1
觐 1
觑 1
角 1
觞 1
解 1
觥 1
触 1
觸 1
言 1
訂 1
計 1
訊 1
討 1
訓 1
訕 1
訖 1
託 1
記 1
訛 1
訝 1
訟 1
訣 1
訥 1
訪 1
設 1
許 1
訳 1
訴 1
訶 1
診 1
註 1
証 1
詆 1
詐 1
詔 1
評 1
詛 1
詞 1
詠 1
詡 1
詢 1
詣 1
試 1
詩 1
詫 1
詬 1
詭 1
詮 1
詰 1
話 1
該 1
詳 1
詹 1
詼 1
誅 1
誇 1
誉 1
誌 1
認 1
誓 1
誕 1
誘 1
語 1
誠 1
誡 1
誣 1
誤 1
誥 1
誦 1
誨 1
說 1
説 1
読 1
誰 1
課 1
誹 1
誼 1
調 1
諄 1
談 1
請 1
諏 1
諒 1
論 1
諗 1
諜 1
諡 1
諦 1
諧 1
諫 1
諭 1
諮 1
諱 1
諳 1
諷 1
諸 1
諺 1
諾 1
謀 1
謁 1
謂 1
謄 1
謊 1
謎 1
謐 1
謔 1
謗 1
謙 1
講 1
謝 1
謠 1
謨 1
謬 1
謹 1
謾 1
譁 1
證 1
譎 1
譏 1
識 1
譙 1
譚 1
譜 1
警 1
譬 1
譯 1
議 1
譲 1
譴 1
護 1
譽 1
讀 1
變 1
讓 1
讚 1
讞 1
计 1
订 1
认 1
讥 1
讧 1
讨 1
让 1
讪 1
讫 1
训 1
议 1
讯 1
记 1
讲 1
讳 1
讴 1
讶 1
讷 1
许 1
讹 1
论 1
讼 1
讽 1
设 1
访 1
诀 1
证 1
诃 1
评 1
诅 1
识 1
诈 1
诉 1
诊 1
诋 1
词 1
诏 1
译 1
试 1
诗 1
诘 1
诙 1
诚 1
诛 1
话 1
诞 1
诟 1
诠 1
诡 1
询 1
诣 1
诤 1
该 1
详 1
诧 1
诩 1
诫 1
诬 1
语 1
误 1
诰 1
诱 1
诲 1
说 1
诵 1
诶 1
请 1
诸 1
诺 1
读 1
诽 1
课 1
诿 1
谀 1
谁 1
调 1
谄 1
谅 1
谆 1
谈 1
谊 1
谋 1
谌 1
谍 1
谎 1
谏 1
谐 1
谑 1
谒 1
谓 1
谔 1
谕 1
谗 1
谘 1
谙 1
谚 1
谛 1
谜 1
谟 1
谢 1
谣 1
谤 1
谥 1
谦 1
谧 1
谨 1
谩 1
谪 1
谬 1
谭 1
谯 1
谱 1
谲 1
谴 1
谶 1
谷 1
豁 1
豆 1
豇 1
豈 1
豉 1
豊 1
豌 1
豎 1
豐 1
豔 1
豚 1
象 1
豢 1
豪 1
豫 1
豬 1
豹 1
豺 1
貂 1
貅 1
貌 1
貓 1
貔 1
貘 1
貝 1
貞 1
負 1
財 1
貢 1
貧 1
貨 1
販 1
貪 1
貫 1
責 1
貯 1
貰 1
貳 1
貴 1
貶 1
買 1
貸 1
費 1
貼 1
貽 1
貿 1
賀 1
賁 1
賂 1
賃 1
賄 1
資 1
賈 1
賊 1
賑 1
賓 1
賜 1
賞 1
賠 1
賡 1
賢 1
賣 1
賤 1
賦 1
質 1
賬 1
賭 1
賴 1
賺 1
購 1
賽 1
贅 1
贈 1
贊 1
贍 1
贏 1
贓 1
贖 1
贛 1
贝 1
贞 1
负 1
贡 1
财 1
责 1
贤 1
败 1
账 1
货 1
质 1
贩 1
贪 1
贫 1
贬 1
购 1
贮 1
贯 1
贰 1
贱 1
贲 1
贴 1
贵 1
贷 1
贸 1
费 1
贺 1
贻 1
贼 1
贾 1
贿 1
赁 1
赂 1
赃 1
资 1
赅 1
赈 1
赊 1
赋 1
赌 1
赎 1
赏 1
赐 1
赓 1
赔 1
赖 1
赘 1
赚 1
赛 1
赝 1
赞 1
赠 1
赡 1
赢 1
赣 1
赤 1
赦 1
赧 1
赫 1
赭 1
走 1
赳 1
赴 1
赵 1
赶 1
起 1
趁 1
超 1
越 1
趋 1
趕 1
趙 1
趟 1
趣 1
趨 1
足 1
趴 1
趵 1
趸 1
趺 1
趾 1
跃 1
跄 1
跆 1
跋 1
跌 1
跎 1
跑 1
跖 1
跚 1
跛 1
距 1
跟 1
跡 1
跤 1
跨 1
跩 1
跪 1
路 1
跳 1
践 1
跷 1
跹 1
跺 1
跻 1
踉 1
踊 1
踌 1
踏 1
踐 1
踝 1
踞 1
踟 1
踢 1
踩 1
踪 1
踮 1
踱 1
踴 1
踵 1
踹 1
蹂 1
蹄 1
蹇 1
蹈 1
蹉 1
蹊 1
蹋 1
蹑 1
蹒 1
蹙 1
蹟 1
蹣 1
蹤 1
蹦 1
蹩 1
蹬 1
蹭 1
蹲 1
蹴 1
蹶 1
蹺 1
蹼 1
蹿 1
躁 1
躇 1
躉 1
躊 1
躋 1
躍 1
躏 1
躪 1
身 1
躬 1
躯 1
躲 1
躺 1
軀 1
車 1
軋 1
軌 1
軍 1
軒 1
軟 1
転 1
軸 1
軼 1
軽 1
軾 1
較 1
載 1
輒 1
輓 1
輔 1
輕 1
輛 1
輝 1
輟 1
輩 1
輪 1
輯 1
輸 1
輻 1
輾 1
輿 1
轄 1
轅 1
轆 1
轉 1
轍 1
轎 1
轟 1
车 1
轧 1
轨 1
轩 1
转 1
轭 1
轮 1
软 1
轰 1
轲 1
轴 1
轶 1
轻 1
轼 1
载 1
轿 1
较 1
辄 1
辅 1
辆 1
辇 1
辈 1
辉 1
辊 1
辍 1
辐 1
辑 1
输 1
辕 1
辖 1
辗 1
辘 1
辙 1
辛 1
辜 1
辞 1
辟 1
辣 1
辦 1
辨 1
辩 1
辫 1
辭 1
辮 1
辯 1
辰 1
辱 1
農 1
边 1
辺 1
辻 1
込 1
辽 1
达 1
迁 1
迂 1
迄 1
迅 1
过 1
迈 1
迎 1
运 1
近 1
返 1
还 1
这 1
进 1
远 1
违 1
连 1
迟 1
迢 1
迤 1
迥 1
迦 1
迩 1
迪 1
迫 1
迭 1
述 1
迴 1
迷 1
迸 1
迹 1
迺 1
追 1
退 1
送 1
适 1
逃 1
逅 1
逆 1
选 1
逊 1
逍 1
透 1
逐 1
递 1
途 1
逕 1
逗 1
這 1
通 1
逛 1
逝 1
逞 1
速 1
造 1
逢 1
連 1
逮 1
週 1
進 1
逵 1
逶 1
逸 1
逻 1
逼 1
逾 1
遁 1
遂 1
遅 1
遇 1
遊 1
運 1
遍 1
過 1
遏 1
遐 1
遑 1
遒 1
道 1
達 1
違 1
遗 1
遙 1
遛 1
遜 1
遞 1
遠 1
遢 1
遣 1
遥 1
遨 1
適 1
遭 1
遮 1
遲 1
遴 1
遵 1
遶 1
遷 1
選 1
遺 1
遼 1
遽 1
避 1
邀 1
邁 1
邂 1
邃 1
還 1
邇 1
邈 1
邊 1
邋 1
邏 1
邑 1
邓 1
邕 1
邛 1
邝 1
邢 1
那 1
邦 1
邨 1
邪 1
邬 1
邮 1
邯 1
邰 1
邱 1
邳 1
邵 1
邸 1
邹 1
邺 1
邻 1
郁 1
郅 1
郊 1
郎 1
郑 1
郜 1
郝 1
郡 1
郢 1
郤 1
郦 1
郧 1
部 1
郫 1
郭 1
郴 1
郵 1
郷 1
郸 1
都 1
鄂 1
鄉 1
鄒 1
鄔 1
鄙 1
鄞 1
鄢 1
鄧 1
鄭 1
鄰 1
鄱 1
鄲 1
鄺 1
酉 1
酊 1
酋 1
酌 1
配 1
酐 1
酒 1
酗 1
酚 1
酝 1
酢 1
酣 1
酥 1
酩 1
酪 1
酬 1
酮 1
酯 1
酰 1
酱 1
酵 1
酶 1
酷 1
酸 1
酿 1
醃 1
醇 1
醉 1
醋 1
醍 1
醐 1
醒 1
醚 1
醛 1
醜 1
醞 1
醣 1
醪 1
醫 1
醬 1
醮 1
醯 1
醴 1
醺 1
釀 1
釁 1
采 1
釉 1
释 1
釋 1
里 1
重 1
野 1
量 1
釐 1
金 1
釗 1
釘 1
釜 1
針 1
釣 1
釦 1
釧 1
釵 1
鈀 1
鈉 1
鈍 1
鈎 1
鈔 1
鈕 1
鈞 1
鈣 1
鈦 1
鈪 1
鈴 1
鈺 1
鈾 1
鉀 1
鉄 1
鉅 1
鉉 1
鉑 1
鉗 1
鉚 1
鉛 1
鉤 1
鉴 1
鉻 1
銀 1
銃 1
銅 1
銑 1
銓 1
銖 1
銘 1
銜 1
銬 1
銭 1
銮 1
銳 1
銷 1
銹 1
鋁 1
鋅 1
鋒 1
鋤 1
鋪 1
鋰 1
鋸 1
鋼 1
錄 1
錐 1
錘 1
錚 1
錠 1
錢 1
錦 1
錨 1
錫 1
錮 1
錯 1
録 1
錳 1
錶 1
鍊 1
鍋 1
鍍 1
鍛 1
鍥 1
鍰 1
鍵 1
鍺 1
鍾 1
鎂 1
鎊 1
鎌 1
鎏 1
鎔 1
鎖 1
鎗 1
鎚 1
鎧 1
鎬 1
鎮 1
鎳 1
鏈 1
鏖 1
鏗 1
鏘 1
鏞 1
鏟 1
鏡 1
鏢 1
鏤 1
鏽 1
鐘 1
鐮 1
鐲 1
鐳 1
鐵 1
鐸 1
鐺 1
鑄 1
鑊 1
鑑 1
鑒 1
鑣 1
鑫 1
鑰 1
鑲 1
鑼 1
鑽 1
鑾 1
鑿 1
针 1
钉 1
钊 1
钎 1
钏 1
钒 1
钓 1
钗 1
钙 1
钛 1
钜 1
钝 1
钞 1
钟 1
钠 1
钡 1
钢 1
钣 1
钤 1
钥 1
钦 1
钧 1
钨 1
钩 1
钮 1
钯 1
钰 1
钱 1
钳 1
钴 1
钵 1
钺 1
钻 1
钼 1
钾 1
钿 1
铀 1
铁 1
铂 1
铃 1
铄 1
铅 1
铆 1
铉 1
铎 1
铐 1
铛 1
铜 1
铝 1
铠 1
铡 1
铢 1
铣 1
铤 1
铨 1
铩 1
铬 1
铭 1
铮 1
铰 1
铲 1
铵 1
银 1
铸 1
铺 1
链 1
铿 1
销 1
锁 1
锂 1
锄 1
锅 1
锆 1
锈 1
锉 1
锋 1
锌 1
锏 1
锐 1
锑 1
错 1
锚 1
锟 1
锡 1
锢 1
锣 1
锤 1
锥 1
锦 1
锭 1
键 1
锯 1
锰 1
锲 1
锵 1
锹 1
锺 1
锻 1
镀 1
镁 1
镂 1
镇 1
镉 1
镌 1
镍 1
镐 1
镑 1
镕 1
镖 1
镗 1
镛 1
镜 1
镣 1
镭 1
镯 1
镰 1
镳 1
镶 1
長 1
长 1
門 1
閃 1
閉 1
開 1
閎 1
閏 1
閑 1
閒 1
間 1
閔 1
閘 1
閡 1
関 1
閣 1
閥 1
閨 1
閩 1
閱 1
閲 1
閹 1
閻 1
閾 1
闆 1
闇 1
闊 1
闌 1
闍 1
闔 1
闕 1
闖 1
闘 1
關 1
闡 1
闢 1
门 1
闪 1
闫 1
闭 1
问 1
闯 1
闰 1
闲 1
间 1
闵 1
闷 1
闸 1
闹 1
闺 1
闻 1
闽 1
闾 1
阀 1
阁 1
阂 1
阅 1
阆 1
阇 1
阈 1
阉 1
阎 1
阐 1
阑 1
阔 1
阕 1
阖 1
阙 1
阚 1
阜 1
队 1
阡 1
阪 1
阮 1
阱 1
防 1
阳 1
阴 1
阵 1
阶 1
阻 1
阿 1
陀 1
陂 1
附 1
际 1
陆 1
陇 1
陈 1
陋 1
陌 1
降 1
限 1
陕 1
陛 1
陝 1
陞 1
陟 1
陡 1
院 1
陣 1
除 1
陨 1
险 1
陪 1
陰 1
陲 1
陳 1
陵 1
陶 1
陷 1
陸 1
険 1
陽 1
隅 1
隆 1
隈 1
隊 1
隋 1
隍 1
階 1
随 1
隐 1
隔 1
隕 1
隘 1
隙 1
際 1
障 1
隠 1
隣 1
隧 1
隨 1
險 1
隱 1
隴 1
隶 1
隸 1
隻 1
隼 1
隽 1
难 1
雀 1
雁 1
雄 1
雅 1
集 1
雇 1
雉 1
雋 1
雌 1
雍 1
雎 1
雏 1
雑 1
雒 1
雕 1
雖 1
雙 1
雛 1
雜 1
雞 1
離 1
難 1
雨 1
雪 1
雯 1
雰 1
雲 1
雳 1
零 1
雷 1
雹 1
電 1
雾 1
需 1
霁 1
霄 1
霆 1
震 1
霈 1
霉 1
霊 1
霍 1
霎 1
霏 1
霑 1
霓 1
霖 1
霜 1
霞 1
霧 1
霭 1
霰 1
露 1
霸 1
霹 1
霽 1
霾 1
靂 1
靄 1
靈 1
青 1
靓 1
靖 1
静 1
靚 1
靛 1
靜 1
非 1
靠 1
靡 1
面 1
靥 1
靦 1
革 1
靳 1
靴 1
靶 1
靼 1
鞅 1
鞋 1
鞍 1
鞏 1
鞑 1
鞘 1
鞠 1
鞣 1
鞦 1
鞭 1
韆 1
韋 1
韌 1
韓 1
韜 1
韦 1
韧 1
韩 1
韬 1
韭 1
音 1
韵 1
韶 1
韻 1
響 1
頁 1
頂 1
頃 1
項 1
順 1
須 1
頌 1
預 1
頑 1
頒 1
頓 1
頗 1
領 1
頜 1
頡 1
頤 1
頫 1
頭 1
頰 1
頷 1
頸 1
頹 1
頻 1
頼 1
顆 1
題 1
額 1
顎 1
顏 1
顔 1
願 1
顛 1
類 1
顧 1
顫 1
顯 1
顱 1
顴 1
页 1
顶 1
顷 1
项 1
顺 1
须 1
顼 1
顽 1
顾 1
顿 1
颁 1
颂 1
预 1
颅 1
领 1
颇 1
颈 1
颉 1
颊 1
颌 1
颍 1
颐 1
频 1
颓 1
颔 1
颖 1
颗 1
题 1
颚 1
颛 1
颜 1
额 1
颞 1
颠 1
颡 1
颢 1
颤 1
颦 1
颧 1
風 1
颯 1
颱 1
颳 1
颶 1
颼 1
飄 1
飆 1
风 1
飒 1
飓 1
飕 1
飘 1
飙 1
飚 1
飛 1
飞 1
食 1
飢 1
飨 1
飩 1
飪 1
飯 1
飲 1
飼 1
飽 1
飾 1
餃 1
餅 1
餉 1
養 1
餌 1
餐 1
餒 1
餓 1
餘 1
餚 1
餛 1
餞 1
餡 1
館 1
餮 1
餵 1
餾 1
饅 1
饈 1
饋 1
饌 1
饍 1
饑 1
饒 1
饕 1
饗 1
饞 1
饥 1
饨 1
饪 1
饬 1
饭 1
饮 1
饯 1
饰 1
饱 1
饲 1
饴 1
饵 1
饶 1
饷 1
饺 1
饼 1
饽 1
饿 1
馀 1
馁 1
馄 1
馅 1
馆 1
馈 1
馋 1
馍 1
馏 1
馒 1
馔 1
首 1
馗 1
香 1
馥 1
馨 1
馬 1
馭 1
馮 1
馳 1
馴 1
駁 1
駄 1
駅 1
駆 1
駐 1
駒 1
駕 1
駛 1
駝 1
駭 1
駱 1
駿 1
騁 1
騎 1
騏 1
験 1
騙 1
騨 1
騰 1
騷 1
驀 1
驅 1
驊 1
驍 1
驒 1
驕 1
驗 1
驚 1
驛 1
驟 1
驢 1
驥 1
马 1
驭 1
驮 1
驯 1
驰 1
驱 1
驳 1
驴 1
驶 1
驷 1
驸 1
驹 1
驻 1
驼 1
驾 1
驿 1
骁 1
骂 1
骄 1
骅 1
骆 1
骇 1
骈 1
骊 1
骋 1
验 1
骏 1
骐 1
骑 1
骗 1
骚 1
骛 1
骜 1
骞 1
骠 1
骡 1
骤 1
骥 1
骧 1
骨 1
骯 1
骰 1
骶 1
骷 1
骸 1
骼 1
髂 1
髅 1
髋 1
髏 1
髒 1
髓 1
體 1
髖 1
高 1
髦 1
髪 1
髮 1
髯 1
髻 1
鬃 1
鬆 1
鬍 1
鬓 1
鬚 1
鬟 1
鬢 1
鬣 1
鬥 1
鬧 1
鬱 1
鬼 1
魁 1
魂 1
魄 1
魅 1
魇 1
魍 1
魏 1
魔 1
魘 1
魚 1
魯 1
魷 1
鮑 1
鮨 1
鮪 1
鮭 1
鮮 1
鯉 1
鯊 1
鯖 1
鯛 1
鯨 1
鯰 1
鯽 1
鰍 1
鰓 1
鰭 1
鰲 1
鰻 1
鰾 1
鱈 1
鱉 1
鱔 1
鱗 1
鱷 1
鱸 1
鱼 1
鱿 1
鲁 1
鲈 1
鲍 1
鲑 1
鲛 1
鲜 1
鲟 1
鲢 1
鲤 1
鲨 1
鲫 1
鲱 1
鲲 1
鲶 1
鲷 1
鲸 1
鳃 1
鳄 1
鳅 1
鳌 1
鳍 1
鳕 1
鳖 1
鳗 1
鳝 1
鳞 1
鳥 1
鳩 1
鳳 1
鳴 1
鳶 1
鴉 1
鴕 1
鴛 1
鴦 1
鴨 1
鴻 1
鴿 1
鵑 1
鵜 1
鵝 1
鵡 1
鵬 1
鵰 1
鵲 1
鶘 1
鶩 1
鶯 1
鶴 1
鷗 1
鷲 1
鷹 1
鷺 1
鸚 1
鸞 1
鸟 1
鸠 1
鸡 1
鸢 1
鸣 1
鸥 1
鸦 1
鸨 1
鸪 1
鸭 1
鸯 1
鸳 1
鸵 1
鸽 1
鸾 1
鸿 1
鹂 1
鹃 1
鹄 1
鹅 1
鹈 1
鹉 1
鹊 1
鹌 1
鹏 1
鹑 1
鹕 1
鹘 1
鹜 1
鹞 1
鹤 1
鹦 1
鹧 1
鹫 1
鹭 1
鹰 1
鹳 1
鹵 1
鹹 1
鹼 1
鹽 1
鹿 1
麂 1
麋 1
麒 1
麓 1
麗 1
麝 1
麟 1
麥 1
麦 1
麩 1
麴 1
麵 1
麸 1
麺 1
麻 1
麼 1
麽 1
麾 1
黃 1
黄 1
黍 1
黎 1
黏 1
黑 1
黒 1
黔 1
默 1
黛 1
黜 1
黝 1
點 1
黠 1
黨 1
黯 1
黴 1
鼋 1
鼎 1
鼐 1
鼓 1
鼠 1
鼬 1
鼹 1
鼻 1
鼾 1
齁 1
齊 1
齋 1
齐 1
齒 1
齡 1
齢 1
齣 1
齦 1
齿 1
龄 1
龅 1
龈 1
龊 1
龋 1
龌 1
龍 1
龐 1
龔 1
龕 1
龙 1
龚 1
龛 1
龜 1
龟 1
︰ 1
︱ 1
︶ 1
︿ 1
﹁ 1
﹂ 1
﹍ 1
﹏ 1
﹐ 1
﹑ 1
﹒ 1
﹔ 1
﹕ 1
﹖ 1
﹗ 1
﹙ 1
﹚ 1
﹝ 1
﹞ 1
﹡ 1
﹣ 1
！ 1
＂ 1
＃ 1
＄ 1
％ 1
＆ 1
＇ 1
（ 1
） 1
＊ 1
＋ 1
， 1
－ 1
． 1
／ 1
０ 1
１ 1
２ 1
３ 1
４ 1
５ 1
６ 1
７ 1
８ 1
９ 1
： 1
； 1
＜ 1
＝ 1
＞ 1
？ 1
＠ 1
［ 1
＼ 1
］ 1
＾ 1
＿ 1
｀ 1
ａ 1
ｂ 1
ｃ 1
ｄ 1
ｅ 1
ｆ 1
ｇ 1
ｈ 1
ｉ 1
ｊ 1
ｋ 1
ｌ 1
ｍ 1
ｎ 1
ｏ 1
ｐ 1
ｑ 1
ｒ 1
ｓ 1
ｔ 1
ｕ 1
ｖ 1
ｗ 1
ｘ 1
ｙ 1
ｚ 1
｛ 1
｜ 1
｝ 1
～ 1
｡ 1
｢ 1
｣ 1
､ 1
･ 1
ｯ 1
ｰ 1
ｲ 1
ｸ 1
ｼ 1
ｽ 1
ﾄ 1
ﾉ 1
ﾌ 1
ﾗ 1
ﾙ 1
ﾝ 1
ﾞ 1
ﾟ 1
￣ 1
￥ 1
👍 1
🔥 1
😂 1
😎 1
... 1
yam 1
10 1
2017 1
12 1
11 1
2016 1
20 1
30 1
15 1
06 1
lofter 1
##s 1
2015 1
by 1
16 1
14 1
18 1
13 1
24 1
17 1
2014 1
21 1
##0 1
22 1
19 1
25 1
23 1
com 1
100 1
00 1
05 1
2013 1
##a 1
03 1
09 1
08 1
28 1
##2 1
50 1
01 1
04 1
##1 1
27 1
02 1
2012 1
##3 1
26 1
##e 1
07 1
##8 1
##5 1
##6 1
##4 1
##9 1
##7 1
29 1
2011 1
40 1
##t 1
2010 1
##o 1
##d 1
##i 1
2009 1
##n 1
app 1
www 1
the 1
##m 1
31 1
##c 1
##l 1
##y 1
##r 1
##g 1
2008 1
60 1
http 1
200 1
qq 1
##p 1
80 1
##f 1
google 1
pixnet 1
90 1
cookies 1
tripadvisor 1
500 1
##er 1
##k 1
35 1
##h 1
facebook 1
2007 1
2000 1
70 1
##b 1
of 1
##x 1
##u 1
45 1
300 1
iphone 1
32 1
1000 1
2006 1
48 1
ip 1
36 1
in 1
38 1
3d 1
##w 1
##ing 1
55 1
ctrip 1
##on 1
##v 1
33 1
##の 1
to 1
34 1
400 1
id 1
2005 1
it 1
37 1
windows 1
llc 1
top 1
99 1
42 1
39 1
000 1
led 1
at 1
##an 1
41 1
51 1
52 1
46 1
49 1
43 1
53 1
44 1
##z 1
android 1
58 1
and 1
59 1
2004 1
56 1
vr 1
##か 1
5000 1
2003 1
47 1
blogthis 1
twitter 1
54 1
##le 1
150 1
ok 1
2018 1
57 1
75 1
cn 1
no 1
ios 1
##in 1
##mm 1
##00 1
800 1
on 1
te 1
3000 1
65 1
2001 1
360 1
95 1
ig 1
lv 1
120 1
##ng 1
##を 1
##us 1
##に 1
pc 1
てす 1
── 1
600 1
##te 1
85 1
2002 1
88 1
##ed 1
html 1
ncc 1
wifi 1
email 1
64 1
blog 1
is 1
##10 1
##て 1
mail 1
online 1
##al 1
dvd 1
##ic 1
studio 1
##は 1
##℃ 1
##ia 1
##と 1
line 1
vip 1
72 1
##q 1
98 1
##ce 1
##en 1
for 1
##is 1
##ra 1
##es 1
##j 1
usb 1
net 1
cp 1
1999 1
asia 1
4g 1
##cm 1
diy 1
new 1
3c 1
##お 1
ta 1
66 1
language 1
vs 1
apple 1
tw 1
86 1
web 1
##ne 1
ipad 1
62 1
you 1
##re 1
101 1
68 1
##tion 1
ps 1
de 1
bt 1
pony 1
atm 1
##2017 1
1998 1
67 1
##ch 1
ceo 1
##or 1
go 1
##na 1
av 1
pro 1
cafe 1
96 1
pinterest 1
97 1
63 1
pixstyleme3c 1
##ta 1
more 1
said 1
##2016 1
1997 1
mp3 1
700 1
##ll 1
nba 1
jun 1
##20 1
92 1
tv 1
1995 1
pm 1
61 1
76 1
nbsp 1
250 1
##ie 1
linux 1
##ma 1
cd 1
110 1
hd 1
##17 1
78 1
##ion 1
77 1
6000 1
am 1
##th 1
##st 1
94 1
##se 1
##et 1
69 1
180 1
gdp 1
my 1
105 1
81 1
abc 1
89 1
flash 1
79 1
one 1
93 1
1990 1
1996 1
##ck 1
gps 1
##も 1
##ly 1
web885 1
106 1
2020 1
91 1
##ge 1
4000 1
1500 1
xd 1
boss 1
isbn 1
1994 1
org 1
##ry 1
me 1
love 1
##11 1
0fork 1
73 1
##12 1
3g 1
##ter 1
##ar 1
71 1
82 1
##la 1
hotel 1
130 1
1970 1
pk 1
83 1
87 1
140 1
ie 1
##os 1
##30 1
##el 1
74 1
##50 1
seo 1
cpu 1
##ml 1
p2p 1
84 1
may 1
##る 1
sun 1
tue 1
internet 1
cc 1
posted 1
youtube 1
##at 1
##ン 1
##man 1
ii 1
##ル 1
##15 1
abs 1
nt 1
pdf 1
yahoo 1
ago 1
1980 1
##it 1
news 1
mac 1
104 1
##てす 1
##me 1
##り 1
java 1
1992 1
spa 1
##de 1
##nt 1
hk 1
all 1
plus 1
la 1
1993 1
##mb 1
##16 1
##ve 1
west 1
##da 1
160 1
air 1
##い 1
##ps 1
から 1
##to 1
1989 1
logo 1
htc 1
php 1
https 1
fi 1
momo 1
##son 1
sat 1
##ke 1
##80 1
ebd 1
suv 1
wi 1
day 1
apk 1
##88 1
##um 1
mv 1
galaxy 1
wiki 1
or 1
brake 1
##ス 1
1200 1
する 1
this 1
1991 1
mon 1
##こ 1
❤2017 1
po 1
##ない 1
javascript 1
life 1
home 1
june 1
##ss 1
system 1
900 1
##ー 1
##０ 1
pp 1
1988 1
world 1
fb 1
4k 1
br 1
##as 1
ic 1
ai 1
leonardo 1
safari 1
##60 1
live 1
free 1
xx 1
wed 1
win7 1
kiehl 1
##co 1
lg 1
o2o 1
##go 1
us 1
235 1
1949 1
mm 1
しい 1
vfm 1
kanye 1
##90 1
##2015 1
##id 1
jr 1
##ey 1
123 1
rss 1
##sa 1
##ro 1
##am 1
##no 1
thu 1
fri 1
350 1
##sh 1
##ki 1
103 1
comments 1
name 1
##のて 1
##pe 1
##ine 1
max 1
1987 1
8000 1
uber 1
##mi 1
##ton 1
wordpress 1
office 1
1986 1
1985 1
##ment 1
107 1
bd 1
win10 1
##ld 1
##li 1
gmail 1
bb 1
dior 1
##rs 1
##ri 1
##rd 1
##ます 1
up 1
cad 1
##® 1
dr 1
して 1
read 1
##21 1
をお 1
##io 1
##99 1
url 1
1984 1
pvc 1
paypal 1
show 1
policy 1
##40 1
##ty 1
##18 1
with 1
##★ 1
##01 1
txt 1
102 1
##ba 1
dna 1
from 1
post 1
mini 1
ar 1
taiwan 1
john 1
##ga 1
privacy 1
agoda 1
##13 1
##ny 1
word 1
##24 1
##22 1
##by 1
##ur 1
##hz 1
1982 1
##ang 1
265 1
cookie 1
netscape 1
108 1
##ka 1
##～ 1
##ad 1
house 1
share 1
note 1
ibm 1
code 1
hello 1
nike 1
sim 1
survey 1
##016 1
1979 1
1950 1
wikia 1
##32 1
##017 1
5g 1
cbc 1
##tor 1
##kg 1
1983 1
##rt 1
##14 1
campaign 1
store 1
2500 1
os 1
##ct 1
##ts 1
##° 1
170 1
api 1
##ns 1
365 1
excel 1
##な 1
##ao 1
##ら 1
##し 1
～～ 1
##nd 1
university 1
163 1
には 1
518 1
##70 1
##ya 1
##il 1
##25 1
pierre 1
ipo 1
0020 1
897 1
##23 1
hotels 1
##ian 1
のお 1
125 1
years 1
6606 1
##ers 1
##26 1
high 1
##day 1
time 1
##ay 1
bug 1
##line 1
##く 1
##す 1
##be 1
xp 1
talk2yam 1
yamservice 1
10000 1
coco 1
##dy 1
sony 1
##ies 1
1978 1
microsoft 1
david 1
people 1
##ha 1
1960 1
instagram 1
intel 1
その 1
##ot 1
iso 1
1981 1
##va 1
115 1
##mo 1
##land 1
xxx 1
man 1
co 1
ltxsw 1
##ation 1
baby 1
220 1
##pa 1
##ol 1
1945 1
7000 1
tag 1
450 1
##ue 1
msn 1
##31 1
oppo 1
##ト 1
##ca 1
control 1
##om 1
st 1
chrome 1
##ure 1
##ん 1
be 1
##き 1
lol 1
##19 1
した 1
##bo 1
240 1
lady 1
##100 1
##way 1
##から 1
4600 1
##ko 1
##do 1
##un 1
4s 1
corporation 1
168 1
##ni 1
herme 1
##28 1
ｃｐ 1
978 1
##up 1
##06 1
ui 1
##ds 1
ppt 1
admin 1
three 1
します 1
bbc 1
re 1
128 1
##48 1
ca 1
##015 1
##35 1
hp 1
##ee 1
tpp 1
##た 1
##ive 1
×× 1
root 1
##cc 1
##ました 1
##ble 1
##ity 1
adobe 1
park 1
114 1
et 1
oled 1
city 1
##ex 1
##ler 1
##ap 1
china 1
##book 1
20000 1
view 1
##ice 1
global 1
##km 1
your 1
hong 1
##mg 1
out 1
##ms 1
ng 1
ebay 1
##29 1
menu 1
ubuntu 1
##cy 1
rom 1
##view 1
open 1
ktv 1
do 1
server 1
##lo 1
if 1
english 1
##ね 1
##５ 1
##oo 1
1600 1
##02 1
step1 1
kong 1
club 1
135 1
july 1
inc 1
1976 1
mr 1
hi 1
##net 1
touch 1
##ls 1
##ii 1
michael 1
lcd 1
##05 1
##33 1
phone 1
james 1
step2 1
1300 1
ios9 1
##box 1
dc 1
##２ 1
##ley 1
samsung 1
111 1
280 1
pokemon 1
css 1
##ent 1
##les 1
いいえ 1
##１ 1
s8 1
atom 1
play 1
bmw 1
##said 1
sa 1
etf 1
ctrl 1
♥yoyo♥ 1
##55 1
2025 1
##2014 1
##66 1
adidas 1
amazon 1
1958 1
##ber 1
##ner 1
visa 1
##77 1
##der 1
1800 1
connectivity 1
##hi 1
firefox 1
109 1
118 1
hr 1
so 1
style 1
mark 1
pop 1
ol 1
skip 1
1975 1
as 1
##27 1
##ir 1
##61 1
190 1
mba 1
##う 1
##ai 1
le 1
##ver 1
1900 1
cafe2017 1
lte 1
super 1
113 1
129 1
##ron 1
amd 1
like 1
##☆ 1
are 1
##ster 1
we 1
##sk 1
paul 1
data 1
international 1
##ft 1
longchamp 1
ssd 1
good 1
##ート 1
##ti 1
reply 1
##my 1
↓↓↓ 1
apr 1
star 1
##ker 1
source 1
136 1
js 1
112 1
get 1
force 1
photo 1
##one 1
126 1
##2013 1
##ow 1
link 1
bbs 1
1972 1
goods 1
##lin 1
python 1
119 1
##ip 1
game 1
##ics 1
##ません 1
blue 1
##● 1
520 1
##45 1
page 1
itunes 1
##03 1
1955 1
260 1
1968 1
gt 1
gif 1
618 1
##ff 1
##47 1
group 1
くたさい 1
about 1
bar 1
ganji 1
##nce 1
music 1
lee 1
not 1
1977 1
1971 1
1973 1
##per 1
an 1
faq 1
comment 1
##って 1
days 1
##ock 1
116 1
##bs 1
1974 1
1969 1
v1 1
player 1
1956 1
xbox 1
sql 1
fm 1
f1 1
139 1
##ah 1
210 1
##lv 1
##mp 1
##000 1
melody 1
1957 1
##３ 1
550 1
17life 1
199 1
1966 1
xml 1
market 1
##au 1
##71 1
999 1
##04 1
what 1
gl 1
##95 1
##age 1
tips 1
##68 1
book 1
##ting 1
mysql 1
can 1
1959 1
230 1
##ung 1
wonderland 1
watch 1
10℃ 1
##ction 1
9000 1
mar 1
mobile 1
1946 1
1962 1
article 1
##db 1
part 1
▲top 1
party 1
って 1
1967 1
1964 1
1948 1
##07 1
##ore 1
##op 1
この 1
dj 1
##78 1
##38 1
010 1
main 1
225 1
1965 1
##ong 1
art 1
320 1
ad 1
134 1
020 1
##73 1
117 1
pm2 1
japan 1
228 1
##08 1
ts 1
1963 1
##ica 1
der 1
sm 1
##36 1
2019 1
##wa 1
ct 1
##７ 1
##や 1
##64 1
1937 1
homemesh 1
search 1
##85 1
##れは 1
##tv 1
##di 1
macbook 1
##９ 1
##くたさい 1
service 1
##♥ 1
type 1
った 1
750 1
##ier 1
##si 1
##75 1
##います 1
##ok 1
best 1
##ット 1
goris 1
lock 1
##った 1
cf 1
3m 1
big 1
##ut 1
ftp 1
carol 1
##vi 1
１０ 1
1961 1
happy 1
sd 1
##ac 1
122 1
anti 1
pe 1
cnn 1
iii 1
1920 1
138 1
##ラ 1
1940 1
esp 1
jan 1
tags 1
##98 1
##51 1
august 1
vol 1
##86 1
154 1
##™ 1
##fs 1
##れ 1
##sion 1
design 1
ac 1
##ム 1
press 1
jordan 1
ppp 1
that 1
key 1
check 1
##６ 1
##tt 1
##㎡ 1
1080p 1
##lt 1
power 1
##42 1
1952 1
##bc 1
vivi 1
##ック 1
he 1
133 1
121 1
jpg 1
##rry 1
201 1
175 1
3500 1
1947 1
nb 1
##ted 1
##rn 1
しています 1
1954 1
usd 1
##t00 1
master 1
##ンク 1
001 1
model 1
##58 1
al 1
##09 1
1953 1
##34 1
ram 1
goo 1
ても 1
##ui 1
127 1
1930 1
red 1
##ary 1
rpg 1
item 1
##pm 1
##41 1
270 1
##za 1
project 1
##2012 1
hot 1
td 1
blogabstract 1
##ger 1
##62 1
650 1
##44 1
gr2 1
##します 1
##ｍ 1
black 1
electronic 1
nfc 1
year 1
asus 1
また 1
html5 1
cindy 1
##hd 1
m3 1
132 1
esc 1
##od 1
booking 1
##53 1
fed 1
tvb 1
##81 1
##ina 1
mit 1
165 1
##いる 1
chan 1
192 1
distribution 1
next 1
になる 1
peter 1
bios 1
steam 1
cm 1
1941 1
にも 1
pk10 1
##ix 1
##65 1
##91 1
dec 1
nasa 1
##ana 1
icecat 1
00z 1
b1 1
will 1
##46 1
li 1
se 1
##ji 1
##み 1
##ard 1
oct 1
##ain 1
jp 1
##ze 1
##bi 1
cio 1
##56 1
smart 1
h5 1
##39 1
##port 1
curve 1
vpn 1
##nm 1
##dia 1
utc 1
##あり 1
12345678910 1
##52 1
rmvb 1
chanel 1
a4 1
miss 1
##and 1
##im 1
media 1
who 1
##63 1
she 1
girl 1
5s 1
124 1
vera 1
##して 1
class 1
vivo 1
king 1
##フ 1
##ei 1
national 1
ab 1
1951 1
5cm 1
888 1
145 1
ipod 1
ap 1
1100 1
5mm 1
211 1
ms 1
2756 1
##69 1
mp4 1
msci 1
##po 1
##89 1
131 1
mg 1
index 1
380 1
##bit 1
##out 1
##zz 1
##97 1
##67 1
158 1
apec 1
##８ 1
photoshop 1
opec 1
￥799 1
ては 1
##96 1
##tes 1
##ast 1
2g 1
○○ 1
##ール 1
￥2899 1
##ling 1
##よ 1
##ory 1
1938 1
##ical 1
kitty 1
content 1
##43 1
step3 1
##cn 1
win8 1
155 1
vc 1
1400 1
iphone7 1
robert 1
##した 1
tcl 1
137 1
beauty 1
##87 1
en 1
dollars 1
##ys 1
##oc 1
step 1
pay 1
yy 1
a1 1
##2011 1
##lly 1
##ks 1
##♪ 1
1939 1
188 1
download 1
1944 1
sep 1
exe 1
ph 1
います 1
school 1
gb 1
center 1
pr 1
street 1
##board 1
uv 1
##37 1
##lan 1
winrar 1
##que 1
##ua 1
##com 1
1942 1
1936 1
480 1
gpu 1
##４ 1
ettoday 1
fu 1
tom 1
##54 1
##ren 1
##via 1
149 1
##72 1
b2b 1
144 1
##79 1
##tch 1
rose 1
arm 1
mb 1
##49 1
##ial 1
##nn 1
nvidia 1
step4 1
mvp 1
00㎡ 1
york 1
156 1
##イ 1
how 1
cpi 1
591 1
2765 1
gov 1
kg 1
joe 1
##xx 1
mandy 1
pa 1
##ser 1
copyright 1
fashion 1
1935 1
don 1
##け 1
ecu 1
##ist 1
##art 1
erp 1
wap 1
have 1
##lm 1
talk 1
##ek 1
##ning 1
##if 1
ch 1
##ite 1
video 1
1943 1
cs 1
san 1
iot 1
look 1
##84 1
##2010 1
##ku 1
october 1
##ux 1
trump 1
##hs 1
##ide 1
box 1
141 1
first 1
##ins 1
april 1
##ight 1
##83 1
185 1
angel 1
protected 1
aa 1
151 1
162 1
x1 1
m2 1
##fe 1
##× 1
##ho 1
size 1
143 1
min 1
ofo 1
fun 1
gomaji 1
ex 1
hdmi 1
food 1
dns 1
march 1
chris 1
kevin 1
##のか 1
##lla 1
##pp 1
##ec 1
ag 1
ems 1
6s 1
720p 1
##rm 1
##ham 1
off 1
##92 1
asp 1
team 1
fandom 1
ed 1
299 1
▌♥ 1
##ell 1
info 1
されています 1
##82 1
sina 1
4066 1
161 1
##able 1
##ctor 1
330 1
399 1
315 1
dll 1
rights 1
ltd 1
idc 1
jul 1
3kg 1
1927 1
142 1
ma 1
surface 1
##76 1
##ク 1
～～～ 1
304 1
mall 1
eps 1
146 1
green 1
##59 1
map 1
space 1
donald 1
v2 1
sodu 1
##light 1
1931 1
148 1
1700 1
まて 1
310 1
reserved 1
htm 1
##han 1
##57 1
2d 1
178 1
mod 1
##ise 1
##tions 1
152 1
ti 1
##shi 1
doc 1
1933 1
icp 1
055 1
wang 1
##ram 1
shopping 1
aug 1
##pi 1
##well 1
now 1
wam 1
b2 1
からお 1
##hu 1
236 1
1928 1
##gb 1
266 1
f2 1
##93 1
153 1
mix 1
##ef 1
##uan 1
bwl 1
##plus 1
##res 1
core 1
##ess 1
tea 1
5℃ 1
hktvmall 1
nhk 1
##ate 1
list 1
##ese 1
301 1
feb 1
4m 1
inn 1
ての 1
nov 1
159 1
12345 1
daniel 1
##ci 1
pass 1
##bet 1
##nk 1
coffee 1
202 1
ssl 1
airbnb 1
##ute 1
fbi 1
woshipm 1
skype 1
ea 1
cg 1
sp 1
##fc 1
##www 1
yes 1
edge 1
alt 1
007 1
##94 1
fpga 1
##ght 1
##gs 1
iso9001 1
さい 1
##ile 1
##wood 1
##uo 1
image 1
lin 1
icon 1
american 1
##em 1
1932 1
set 1
says 1
##king 1
##tive 1
blogger 1
##74 1
なと 1
256 1
147 1
##ox 1
##zy 1
##red 1
##ium 1
##lf 1
nokia 1
claire 1
##リ 1
##ding 1
november 1
lohas 1
##500 1
##tic 1
##マ 1
##cs 1
##ある 1
##che 1
##ire 1
##gy 1
##ult 1
db 1
january 1
win 1
##カ 1
166 1
road 1
ptt 1
##ま 1
##つ 1
198 1
##fa 1
##mer 1
anna 1
pchome 1
はい 1
udn 1
ef 1
420 1
##time 1
##tte 1
2030 1
##ア 1
g20 1
white 1
かかります 1
1929 1
308 1
garden 1
eleven 1
di 1
##おります 1
chen 1
309b 1
777 1
172 1
young 1
cosplay 1
ちてない 1
4500 1
bat 1
##123 1
##tra 1
##ては 1
kindle 1
npc 1
steve 1
etc 1
##ern 1
##｜ 1
call 1
xperia 1
ces 1
travel 1
sk 1
s7 1
##ous 1
1934 1
##int 1
みいたたけます 1
183 1
edu 1
file 1
cho 1
qr 1
##car 1
##our 1
186 1
##ant 1
##ｄ 1
eric 1
1914 1
rends 1
##jo 1
##する 1
mastercard 1
##2000 1
kb 1
##min 1
290 1
##ino 1
vista 1
##ris 1
##ud 1
jack 1
2400 1
##set 1
169 1
pos 1
1912 1
##her 1
##ou 1
taipei 1
しく 1
205 1
beta 1
##ませんか 1
232 1
##fi 1
express 1
255 1
body 1
##ill 1
aphojoy 1
user 1
december 1
meiki 1
##ick 1
tweet 1
richard 1
##av 1
##ᆫ 1
iphone6 1
##dd 1
ちてすか 1
views 1
##mark 1
321 1
pd 1
##００ 1
times 1
##▲ 1
level 1
##ash 1
10g 1
point 1
5l 1
##ome 1
208 1
koreanmall 1
##ak 1
george 1
q2 1
206 1
wma 1
tcp 1
##200 1
スタッフ 1
full 1
mlb 1
##lle 1
##watch 1
tm 1
run 1
179 1
911 1
smith 1
business 1
##und 1
1919 1
color 1
##tal 1
222 1
171 1
##less 1
moon 1
4399 1
##rl 1
update 1
pcb 1
shop 1
499 1
157 1
little 1
なし 1
end 1
##mhz 1
van 1
dsp 1
easy 1
660 1
##house 1
##key 1
history 1
##ｏ 1
oh 1
##001 1
##hy 1
##web 1
oem 1
let 1
was 1
##2009 1
##gg 1
review 1
##wan 1
182 1
##°c 1
203 1
uc 1
title 1
##val 1
united 1
233 1
2021 1
##ons 1
doi 1
trivago 1
overdope 1
sbs 1
##ance 1
##ち 1
grand 1
special 1
573032185 1
imf 1
216 1
wx17house 1
##so 1
##ーム 1
audi 1
##he 1
london 1
william 1
##rp 1
##ake 1
science 1
beach 1
cfa 1
amp 1
ps4 1
880 1
##800 1
##link 1
##hp 1
crm 1
ferragamo 1
bell 1
make 1
##eng 1
195 1
under 1
zh 1
photos 1
2300 1
##style 1
##ント 1
via 1
176 1
da 1
##gi 1
company 1
i7 1
##ray 1
thomas 1
370 1
ufo 1
i5 1
##max 1
plc 1
ben 1
back 1
research 1
8g 1
173 1
mike 1
##pc 1
##ッフ 1
september 1
189 1
##ace 1
vps 1
february 1
167 1
pantos 1
wp 1
lisa 1
1921 1
★★ 1
jquery 1
night 1
long 1
offer 1
##berg 1
##news 1
1911 1
##いて 1
ray 1
fks 1
wto 1
せます 1
over 1
164 1
340 1
##all 1
##rus 1
1924 1
##888 1
##works 1
blogtitle 1
loftpermalink 1
##→ 1
187 1
martin 1
test 1
ling 1
km 1
##め 1
15000 1
fda 1
v3 1
##ja 1
##ロ 1
ｗedding 1
かある 1
outlet 1
family 1
##ea 1
をこ 1
##top 1
story 1
##ness 1
salvatore 1
##lu 1
204 1
swift 1
215 1
room 1
している 1
oracle 1
##ul 1
1925 1
sam 1
b2c 1
week 1
pi 1
rock 1
##のは 1
##ａ 1
##けと 1
##ean 1
##300 1
##gle 1
cctv 1
after 1
chinese 1
##back 1
powered 1
x2 1
##tan 1
1918 1
##nes 1
##イン 1
canon 1
only 1
181 1
##zi 1
##las 1
say 1
##oe 1
184 1
##sd 1
221 1
##bot 1
##world 1
##zo 1
sky 1
made 1
top100 1
just 1
1926 1
pmi 1
802 1
234 1
gap 1
##vr 1
177 1
les 1
174 1
▲topoct 1
ball 1
vogue 1
vi 1
ing 1
ofweek 1
cos 1
##list 1
##ort 1
▲topmay 1
##なら 1
##lon 1
として 1
last 1
##tc 1
##of 1
##bus 1
##gen 1
real 1
eva 1
##コ 1
a3 1
nas 1
##lie 1
##ria 1
##coin 1
##bt 1
▲topapr 1
his 1
212 1
cat 1
nata 1
vive 1
health 1
⋯⋯ 1
drive 1
sir 1
▲topmar 1
du 1
cup 1
##カー 1
##ook 1
##よう 1
##sy 1
alex 1
msg 1
tour 1
しました 1
3ce 1
##word 1
193 1
ebooks 1
r8 1
block 1
318 1
##より 1
2200 1
nice 1
pvp 1
207 1
months 1
1905 1
rewards 1
##ther 1
1917 1
0800 1
##xi 1
##チ 1
##sc 1
micro 1
850 1
gg 1
blogfp 1
op 1
1922 1
daily 1
m1 1
264 1
true 1
##bb 1
ml 1
##tar 1
##のお 1
##ky 1
anthony 1
196 1
253 1
##yo 1
state 1
218 1
##ara 1
##aa 1
##rc 1
##tz 1
##ston 1
より 1
gear 1
##eo 1
##ade 1
ge 1
see 1
1923 1
##win 1
##ura 1
ss 1
heart 1
##den 1
##ita 1
down 1
##sm 1
el 1
png 1
2100 1
610 1
rakuten 1
whatsapp 1
bay 1
dream 1
add 1
##use 1
680 1
311 1
pad 1
gucci 1
mpv 1
##ode 1
##fo 1
island 1
▲topjun 1
##▼ 1
223 1
jason 1
214 1
chicago 1
##❤ 1
しの 1
##hone 1
io 1
##れる 1
##ことか 1
sogo 1
be2 1
##ology 1
990 1
cloud 1
vcd 1
##con 1
2～3 1
##ford 1
##joy 1
##kb 1
##こさいます 1
##rade 1
but 1
##ach 1
docker 1
##ful 1
rfid 1
ul 1
##ase 1
hit 1
ford 1
##star 1
580 1
##○ 1
１１ 1
a2 1
sdk 1
reading 1
edited 1
##are 1
cmos 1
##mc 1
238 1
siri 1
light 1
##ella 1
##ため 1
bloomberg 1
##read 1
pizza 1
##ison 1
jimmy 1
##vm 1
college 1
node 1
journal 1
ba 1
18k 1
##play 1
245 1
##cer 1
２０ 1
magic 1
##yu 1
191 1
jump 1
288 1
tt 1
##ings 1
asr 1
##lia 1
3200 1
step5 1
network 1
##cd 1
mc 1
いします 1
1234 1
pixstyleme 1
273 1
##600 1
2800 1
money 1
★★★★★ 1
1280 1
１２ 1
430 1
bl 1
みの 1
act 1
##tus 1
tokyo 1
##rial 1
##life 1
emba 1
##ae 1
saas 1
tcs 1
##rk 1
##wang 1
summer 1
##sp 1
ko 1
##ving 1
390 1
premium 1
##その 1
netflix 1
##ヒ 1
uk 1
mt 1
##lton 1
right 1
frank 1
two 1
209 1
える 1
##ple 1
##cal 1
021 1
##んな 1
##sen 1
##ville 1
hold 1
nexus 1
dd 1
##ius 1
てお 1
##mah 1
##なく 1
tila 1
zero 1
820 1
ce 1
##tin 1
resort 1
##ws 1
charles 1
old 1
p10 1
5d 1
report 1
##360 1
##ru 1
##には 1
bus 1
vans 1
lt 1
##est 1
pv 1
##レ 1
links 1
rebecca 1
##ツ 1
##dm 1
azure 1
##365 1
きな 1
limited 1
bit 1
4gb 1
##mon 1
1910 1
moto 1
##eam 1
213 1
1913 1
var 1
eos 1
なとの 1
226 1
blogspot 1
された 1
699 1
e3 1
dos 1
dm 1
fc 1
##ments 1
##ik 1
##kw 1
boy 1
##bin 1
##ata 1
960 1
er 1
##せ 1
219 1
##vin 1
##tu 1
##ula 1
194 1
##∥ 1
station 1
##ろ 1
##ature 1
835 1
files 1
zara 1
hdr 1
top10 1
nature 1
950 1
magazine 1
s6 1
marriott 1
##シ 1
avira 1
case 1
##っと 1
tab 1
##ran 1
tony 1
##home 1
oculus 1
im 1
##ral 1
jean 1
saint 1
cry 1
307 1
rosie 1
##force 1
##ini 1
ice 1
##bert 1
のある 1
##nder 1
##mber 1
pet 1
2600 1
##◆ 1
plurk 1
▲topdec 1
##sis 1
00kg 1
▲topnov 1
720 1
##ence 1
tim 1
##ω 1
##nc 1
##ても 1
##name 1
log 1
ips 1
great 1
ikea 1
malaysia 1
unix 1
##イト 1
3600 1
##ncy 1
##nie 1
12000 1
akb48 1
##ye 1
##oid 1
404 1
##chi 1
##いた 1
oa 1
xuehai 1
##1000 1
##orm 1
##rf 1
275 1
さん 1
##ware 1
##リー 1
980 1
ho 1
##pro 1
text 1
##era 1
560 1
bob 1
227 1
##ub 1
##2008 1
8891 1
scp 1
avi 1
##zen 1
2022 1
mi 1
wu 1
museum 1
qvod 1
apache 1
lake 1
jcb 1
▲topaug 1
★★★ 1
ni 1
##hr 1
hill 1
302 1
ne 1
weibo 1
490 1
ruby 1
##ーシ 1
##ヶ 1
##row 1
4d 1
▲topjul 1
iv 1
##ish 1
github 1
306 1
mate 1
312 1
##スト 1
##lot 1
##ane 1
andrew 1
のハイト 1
##tina 1
t1 1
rf 1
ed2k 1
##vel 1
##900 1
way 1
final 1
りの 1
ns 1
5a 1
705 1
197 1
##メ 1
sweet 1
bytes 1
##ene 1
▲topjan 1
231 1
##cker 1
##2007 1
##px 1
100g 1
topapp 1
229 1
helpapp 1
rs 1
low 1
14k 1
g4g 1
care 1
630 1
ldquo 1
あり 1
##fork 1
leave 1
rm 1
edition 1
##gan 1
##zon 1
##qq 1
▲topsep 1
##google 1
##ism 1
gold 1
224 1
explorer 1
##zer 1
toyota 1
category 1
select 1
visual 1
##labels 1
restaurant 1
##md 1
posts 1
s1 1
##ico 1
もっと 1
angelababy 1
123456 1
217 1
sports 1
s3 1
mbc 1
1915 1
してくたさい 1
shell 1
x86 1
candy 1
##new 1
kbs 1
face 1
xl 1
470 1
##here 1
4a 1
swissinfo 1
v8 1
▲topfeb 1
dram 1
##ual 1
##vice 1
3a 1
##wer 1
sport 1
q1 1
ios10 1
public 1
int 1
card 1
##ｃ 1
ep 1
au 1
rt 1
##れた 1
1080 1
bill 1
##mll 1
kim 1
３０ 1
460 1
wan 1
##uk 1
##ミ 1
x3 1
298 1
0t 1
scott 1
##ming 1
239 1
e5 1
##3d 1
h7n9 1
worldcat 1
brown 1
##あります 1
##vo 1
##led 1
##580 1
##ax 1
249 1
410 1
##ert 1
paris 1
##～6 1
polo 1
925 1
##lr 1
599 1
##ナ 1
capital 1
##hing 1
bank 1
cv 1
1g 1
##chat 1
##ｓ 1
##たい 1
adc 1
##ule 1
2m 1
##ｅ 1
digital 1
hotmail 1
268 1
##pad 1
870 1
bbq 1
quot 1
##ring 1
before 1
wali 1
##まて 1
mcu 1
2k 1
2b 1
という 1
costco 1
316 1
north 1
333 1
switch 1
##city 1
##ｐ 1
philips 1
##mann 1
management 1
panasonic 1
##cl 1
##vd 1
##ping 1
##rge 1
alice 1
##lk 1
##ましょう 1
css3 1
##ney 1
vision 1
alpha 1
##ular 1
##400 1
##tter 1
lz 1
にお 1
##ありません 1
mode 1
gre 1
1916 1
pci 1
##tm 1
237 1
1～2 1
##yan 1
##そ 1
について 1
##let 1
##キ 1
work 1
war 1
coach 1
ah 1
mary 1
##ᅵ 1
huang 1
##pt 1
a8 1
pt 1
follow 1
##berry 1
1895 1
##ew 1
a5 1
ghost 1
##ション 1
##wn 1
##og 1
south 1
##code 1
girls 1
##rid 1
action 1
villa 1
git 1
r11 1
table 1
games 1
##cket 1
error 1
##anonymoussaid 1
##ag 1
here 1
##ame 1
##gc 1
qa 1
##■ 1
##lis 1
gmp 1
##gin 1
vmalife 1
##cher 1
yu 1
wedding 1
##tis 1
demo 1
dragon 1
530 1
soho 1
social 1
bye 1
##rant 1
river 1
orz 1
acer 1
325 1
##↑ 1
##ース 1
##ats 1
261 1
del 1
##ven 1
440 1
ups 1
##ように 1
##ター 1
305 1
value 1
macd 1
yougou 1
##dn 1
661 1
##ano 1
ll 1
##urt 1
##rent 1
continue 1
script 1
##wen 1
##ect 1
paper 1
263 1
319 1
shift 1
##chel 1
##フト 1
##cat 1
258 1
x5 1
fox 1
243 1
##さん 1
car 1
aaa 1
##blog 1
loading 1
##yn 1
##tp 1
kuso 1
799 1
si 1
sns 1
イカせるテンマ 1
ヒンクテンマ3 1
rmb 1
vdc 1
forest 1
central 1
prime 1
help 1
ultra 1
##rmb 1
##ような 1
241 1
square 1
688 1
##しい 1
のないフロクに 1
##field 1
##reen 1
##ors 1
##ju 1
c1 1
start 1
510 1
##air 1
##map 1
cdn 1
##wo 1
cba 1
stephen 1
m8 1
100km 1
##get 1
opera 1
##base 1
##ood 1
vsa 1
com™ 1
##aw 1
##ail 1
251 1
なのて 1
count 1
t2 1
##ᅡ 1
##een 1
2700 1
hop 1
##gp 1
vsc 1
tree 1
##eg 1
##ose 1
816 1
285 1
##ories 1
##shop 1
alphago 1
v4 1
1909 1
simon 1
##ᆼ 1
fluke62max 1
zip 1
スホンサー 1
##sta 1
louis 1
cr 1
bas 1
##～10 1
bc 1
##yer 1
hadoop 1
##ube 1
##wi 1
1906 1
0755 1
hola 1
##low 1
place 1
centre 1
5v 1
d3 1
##fer 1
252 1
##750 1
##media 1
281 1
540 1
0l 1
exchange 1
262 1
series 1
##ハー 1
##san 1
eb 1
##bank 1
##ｋ 1
q3 1
##nge 1
##mail 1
take 1
##lp 1
259 1
1888 1
client 1
east 1
cache 1
event 1
vincent 1
##ールを 1
きを 1
##nse 1
sui 1
855 1
adchoice 1
##и 1
##stry 1
##なたの 1
246 1
##zone 1
ga 1
apps 1
sea 1
##ab 1
248 1
cisco 1
##タ 1
##rner 1
kymco 1
##care 1
dha 1
##pu 1
##yi 1
minkoff 1
royal 1
p1 1
への 1
annie 1
269 1
collection 1
kpi 1
playstation 1
257 1
になります 1
866 1
bh 1
##bar 1
queen 1
505 1
radio 1
1904 1
andy 1
armani 1
##xy 1
manager 1
iherb 1
##ery 1
##share 1
spring 1
raid 1
johnson 1
1908 1
##ob 1
volvo 1
hall 1
##ball 1
v6 1
our 1
taylor 1
##hk 1
bi 1
242 1
##cp 1
kate 1
bo 1
water 1
technology 1
##rie 1
サイトは 1
277 1
##ona 1
##sl 1
hpv 1
303 1
gtx 1
hip 1
rdquo 1
jayz 1
stone 1
##lex 1
##rum 1
namespace 1
##やり 1
620 1
##ale 1
##atic 1
des 1
##erson 1
##ql 1
##ves 1
##type 1
enter 1
##この 1
##てきます 1
d2 1
##168 1
##mix 1
##bian 1
との 1
a9 1
jj 1
ky 1
##lc 1
access 1
movie 1
##hc 1
リストに 1
tower 1
##ration 1
##mit 1
ます 1
##nch 1
ua 1
tel 1
prefix 1
##o2 1
1907 1
##point 1
1901 1
ott 1
～10 1
##http 1
##ury 1
baidu 1
##ink 1
member 1
##logy 1
bigbang 1
nownews 1
##js 1
##shot 1
##tb 1
##こと 1
247 1
eba 1
##tics 1
##lus 1
ける 1
v5 1
spark 1
##ama 1
there 1
##ions 1
god 1
##lls 1
##down 1
hiv 1
##ress 1
burberry 1
day2 1
##kv 1
◆◆ 1
jeff 1
related 1
film 1
edit 1
joseph 1
283 1
##ark 1
cx 1
32gb 1
order 1
g9 1
30000 1
##ans 1
##tty 1
s5 1
##bee 1
かあります 1
thread 1
xr 1
buy 1
sh 1
005 1
land 1
spotify 1
mx 1
##ari 1
276 1
##verse 1
×email 1
sf 1
why 1
##ことて 1
244 1
7headlines 1
nego 1
sunny 1
dom 1
exo 1
401 1
666 1
positioning 1
fit 1
rgb 1
##tton 1
278 1
kiss 1
alexa 1
adam 1
lp 1
みリストを 1
##ｇ 1
mp 1
##ties 1
##llow 1
amy 1
##du 1
np 1
002 1
institute 1
271 1
##rth 1
##lar 1
2345 1
590 1
##des 1
sidebar 1
１５ 1
imax 1
site 1
##cky 1
##kit 1
##ime 1
##009 1
season 1
323 1
##fun 1
##ンター 1
##ひ 1
gogoro 1
a7 1
pu 1
lily 1
fire 1
twd600 1
##ッセーシを 1
いて 1
##vis 1
30ml 1
##cture 1
##をお 1
information 1
##オ 1
close 1
friday 1
##くれる 1
yi 1
nick 1
てすか 1
##tta 1
##tel 1
6500 1
##lock 1
cbd 1
economy 1
254 1
かお 1
267 1
tinker 1
double 1
375 1
8gb 1
voice 1
##app 1
oops 1
channel 1
today 1
985 1
##right 1
raw 1
xyz 1
##＋ 1
jim 1
edm 1
##cent 1
7500 1
supreme 1
814 1
ds 1
##its 1
##asia 1
dropbox 1
##てすか 1
##tti 1
books 1
272 1
100ml 1
##tle 1
##ller 1
##ken 1
##more 1
##boy 1
sex 1
309 1
##dom 1
t3 1
##ider 1
##なります 1
##unch 1
1903 1
810 1
feel 1
5500 1
##かった 1
##put 1
により 1
s2 1
mo 1
##gh 1
men 1
ka 1
amoled 1
div 1
##tr 1
##n1 1
port 1
howard 1
##tags 1
ken 1
dnf 1
##nus 1
adsense 1
##а 1
ide 1
##へ 1
buff 1
thunder 1
##town 1
##ique 1
has 1
##body 1
auto 1
pin 1
##erry 1
tee 1
てした 1
295 1
number 1
##the 1
##013 1
object 1
psp 1
cool 1
udnbkk 1
16gb 1
##mic 1
miui 1
##tro 1
most 1
r2 1
##alk 1
##nity 1
1880 1
±0 1
##いました 1
428 1
s4 1
law 1
version 1
##oa 1
n1 1
sgs 1
docomo 1
##tf 1
##ack 1
henry 1
fc2 1
##ded 1
##sco 1
##014 1
##rite 1
286 1
0mm 1
linkedin 1
##ada 1
##now 1
wii 1
##ndy 1
ucbug 1
##◎ 1
sputniknews 1
legalminer 1
##ika 1
##xp 1
2gb 1
##bu 1
q10 1
oo 1
b6 1
come 1
##rman 1
cheese 1
ming 1
maker 1
##gm 1
nikon 1
##fig 1
ppi 1
kelly 1
##ります 1
jchere 1
てきます 1
ted 1
md 1
003 1
fgo 1
tech 1
##tto 1
dan 1
soc 1
##gl 1
##len 1
hair 1
earth 1
640 1
521 1
img 1
##pper 1
##a1 1
##てきる 1
##ロク 1
acca 1
##ition 1
##ference 1
suite 1
##ig 1
outlook 1
##mond 1
##cation 1
398 1
##pr 1
279 1
101vip 1
358 1
##999 1
282 1
64gb 1
3800 1
345 1
airport 1
##over 1
284 1
##おり 1
jones 1
##ith 1
lab 1
##su 1
##いるのて 1
co2 1
town 1
piece 1
##llo 1
no1 1
vmware 1
24h 1
##qi 1
focus 1
reader 1
##admin 1
##ora 1
tb 1
false 1
##log 1
1898 1
know 1
lan 1
838 1
##ces 1
f4 1
##ume 1
motel 1
stop 1
##oper 1
na 1
flickr 1
netcomponents 1
##af 1
##─ 1
pose 1
williams 1
local 1
##ound 1
##cg 1
##site 1
##iko 1
いお 1
274 1
5m 1
gsm 1
con 1
##ath 1
1902 1
friends 1
##hip 1
cell 1
317 1
##rey 1
780 1
cream 1
##cks 1
012 1
##dp 1
facebooktwitterpinterestgoogle 1
sso 1
324 1
shtml 1
song 1
swiss 1
##mw 1
##キンク 1
lumia 1
xdd 1
string 1
tiffany 1
522 1
marc 1
られた 1
insee 1
russell 1
sc 1
dell 1
##ations 1
ｏｋ 1
camera 1
289 1
##vs 1
##flow 1
##late 1
classic 1
287 1
##nter 1
stay 1
g1 1
mtv 1
512 1
##ever 1
##lab 1
##nger 1
qe 1
sata 1
ryan 1
d1 1
50ml 1
cms 1
##cing 1
su 1
292 1
3300 1
editor 1
296 1
##nap 1
security 1
sunday 1
association 1
##ens 1
##700 1
##bra 1
acg 1
##かり 1
sofascore 1
とは 1
mkv 1
##ign 1
jonathan 1
gary 1
build 1
labels 1
##oto 1
tesla 1
moba 1
qi 1
gohappy 1
general 1
ajax 1
1024 1
##かる 1
サイト 1
society 1
##test 1
##urs 1
wps 1
fedora 1
##ich 1
mozilla 1
328 1
##480 1
##dr 1
usa 1
urn 1
##lina 1
##ｒ 1
grace 1
##die 1
##try 1
##ader 1
1250 1
##なり 1
elle 1
570 1
##chen 1
##ᆯ 1
price 1
##ten 1
uhz 1
##ough 1
eq 1
##hen 1
states 1
push 1
session 1
balance 1
wow 1
506 1
##cus 1
##py 1
when 1
##ward 1
##ep 1
34e 1
wong 1
library 1
prada 1
##サイト 1
##cle 1
running 1
##ree 1
313 1
ck 1
date 1
q4 1
##ctive 1
##ool 1
##＞ 1
mk 1
##ira 1
##163 1
388 1
die 1
secret 1
rq 1
dota 1
buffet 1
は１ヶ 1
e6 1
##ez 1
pan 1
368 1
ha 1
##card 1
##cha 1
2a 1
##さ 1
alan 1
day3 1
eye 1
f3 1
##end 1
france 1
keep 1
adi 1
rna 1
tvbs 1
##ala 1
solo 1
nova 1
##え 1
##tail 1
##ょう 1
support 1
##ries 1
##なる 1
##ved 1
base 1
copy 1
iis 1
fps 1
##ways 1
hero 1
hgih 1
profile 1
fish 1
mu 1
ssh 1
entertainment 1
chang 1
##wd 1
click 1
cake 1
##ond 1
pre 1
##tom 1
kic 1
pixel 1
##ov 1
##fl 1
product 1
6a 1
##pd 1
dear 1
##gate 1
es 1
yumi 1
audio 1
##² 1
##sky 1
echo 1
bin 1
where 1
##ture 1
329 1
##ape 1
find 1
sap 1
isis 1
##なと 1
nand 1
##101 1
##load 1
##ream 1
band 1
a6 1
525 1
never 1
##post 1
festival 1
50cm 1
##we 1
555 1
guide 1
314 1
zenfone 1
##ike 1
335 1
gd 1
forum 1
jessica 1
strong 1
alexander 1
##ould 1
software 1
allen 1
##ious 1
program 1
360° 1
else 1
lohasthree 1
##gar 1
することかてきます 1
please 1
##れます 1
rc 1
##ggle 1
##ric 1
bim 1
50000 1
##own 1
eclipse 1
355 1
brian 1
3ds 1
##side 1
061 1
361 1
##other 1
##ける 1
##tech 1
##ator 1
485 1
engine 1
##ged 1
##ｔ 1
plaza 1
##fit 1
cia 1
ngo 1
westbrook 1
shi 1
tbs 1
50mm 1
##みませんか 1
sci 1
291 1
reuters 1
##ily 1
contextlink 1
##hn 1
af 1
##cil 1
bridge 1
very 1
##cel 1
1890 1
cambridge 1
##ize 1
15g 1
##aid 1
##data 1
790 1
frm 1
##head 1
award 1
butler 1
##sun 1
meta 1
##mar 1
america 1
ps3 1
puma 1
pmid 1
##すか 1
lc 1
670 1
kitchen 1
##lic 1
オーフン5 1
きなしソフトサーヒス 1
そして 1
day1 1
future 1
★★★★ 1
##text 1
##page 1
##rris 1
pm1 1
##ket 1
fans 1
##っています 1
1001 1
christian 1
bot 1
kids 1
trackback 1
##hai 1
c3 1
display 1
##hl 1
n2 1
1896 1
idea 1
さんも 1
##sent 1
airmail 1
##ug 1
##men 1
pwm 1
けます 1
028 1
##lution 1
369 1
852 1
awards 1
schemas 1
354 1
asics 1
wikipedia 1
font 1
##tional 1
##vy 1
c2 1
293 1
##れている 1
##dget 1
##ein 1
っている 1
contact 1
pepper 1
スキル 1
339 1
##～5 1
294 1
##uel 1
##ument 1
730 1
##hang 1
みてす 1
q5 1
##sue 1
rain 1
##ndi 1
wei 1
swatch 1
##cept 1
わせ 1
331 1
popular 1
##ste 1
##tag 1
p2 1
501 1
trc 1
1899 1
##west 1
##live 1
justin 1
honda 1
ping 1
messenger 1
##rap 1
v9 1
543 1
##とは 1
unity 1
appqq 1
はすへて 1
025 1
leo 1
##tone 1
##テ 1
##ass 1
uniqlo 1
##010 1
502 1
her 1
jane 1
memory 1
moneydj 1
##tical 1
human 1
12306 1
していると 1
##m2 1
coc 1
miacare 1
##mn 1
tmt 1
##core 1
vim 1
kk 1
##may 1
fan 1
target 1
use 1
too 1
338 1
435 1
2050 1
867 1
737 1
fast 1
##2c 1
services 1
##ope 1
omega 1
energy 1
##わ 1
pinkoi 1
1a 1
##なから 1
##rain 1
jackson 1
##ement 1
##シャンルの 1
374 1
366 1
そんな 1
p9 1
rd 1
##ᆨ 1
1111 1
##tier 1
##vic 1
zone 1
##│ 1
385 1
690 1
dl 1
isofix 1
cpa 1
m4 1
322 1
kimi 1
めて 1
davis 1
##lay 1
lulu 1
##uck 1
050 1
weeks 1
qs 1
##hop 1
920 1
##ｎ 1
ae 1
##ear 1
～5 1
eia 1
405 1
##fly 1
korea 1
jpeg 1
boost 1
##ship 1
small 1
##リア 1
1860 1
eur 1
297 1
425 1
valley 1
##iel 1
simple 1
##ude 1
rn 1
k2 1
##ena 1
されます 1
non 1
patrick 1
しているから 1
##ナー 1
feed 1
5757 1
30g 1
process 1
well 1
qqmei 1
##thing 1
they 1
aws 1
lu 1
pink 1
##ters 1
##kin 1
または 1
board 1
##vertisement 1
wine 1
##ien 1
unicode 1
##dge 1
r1 1
359 1
##tant 1
いを 1
##twitter 1
##3c 1
cool1 1
される 1
##れて 1
##ｌ 1
isp 1
##012 1
standard 1
45㎡2 1
402 1
##150 1
matt 1
##fu 1
326 1
##iner 1
googlemsn 1
pixnetfacebookyahoo 1
##ラン 1
x7 1
886 1
##uce 1
メーカー 1
sao 1
##ev 1
##きました 1
##file 1
9678 1
403 1
xddd 1
shirt 1
6l 1
##rio 1
##hat 1
3mm 1
givenchy 1
ya 1
bang 1
##lio 1
monday 1
crystal 1
ロクイン 1
##abc 1
336 1
head 1
890 1
ubuntuforumwikilinuxpastechat 1
##vc 1
##～20 1
##rity 1
cnc 1
7866 1
ipv6 1
null 1
1897 1
##ost 1
yang 1
imsean 1
tiger 1
##fet 1
##ンス 1
352 1
##＝ 1
dji 1
327 1
ji 1
maria 1
##come 1
##んて 1
foundation 1
3100 1
##beth 1
##なった 1
1m 1
601 1
active 1
##aft 1
##don 1
3p 1
sr 1
349 1
emma 1
##khz 1
living 1
415 1
353 1
1889 1
341 1
709 1
457 1
sas 1
x6 1
##face 1
pptv 1
x4 1
##mate 1
han 1
sophie 1
##jing 1
337 1
fifa 1
##mand 1
other 1
sale 1
inwedding 1
##gn 1
てきちゃいます 1
##mmy 1
##pmlast 1
bad 1
nana 1
nbc 1
してみてくたさいね 1
なとはお 1
##wu 1
##かあります 1
##あ 1
note7 1
single 1
##340 1
せからこ 1
してくたさい♪この 1
しにはとんとんワークケートを 1
するとあなたにもっとマッチした 1
ならワークケートへ 1
もみつかっちゃうかも 1
ワークケートの 1
##bel 1
window 1
##dio 1
##ht 1
union 1
age 1
382 1
１４ 1
##ivity 1
##ｙ 1
コメント 1
domain 1
neo 1
##isa 1
##lter 1
5k 1
f5 1
steven 1
##cts 1
powerpoint 1
tft 1
self 1
g2 1
ft 1
##テル 1
zol 1
##act 1
mwc 1
381 1
343 1
もう 1
nbapop 1
408 1
てある 1
eds 1
ace 1
##room 1
previous 1
author 1
tomtom 1
il 1
##ets 1
hu 1
financial 1
☆☆☆ 1
っています 1
bp 1
5t 1
chi 1
1gb 1
##hg 1
fairmont 1
cross 1
008 1
gay 1
h2 1
function 1
##けて 1
356 1
also 1
1b 1
625 1
##ータ 1
##raph 1
1894 1
3～5 1
##ils 1
i3 1
334 1
avenue 1
##host 1
による 1
##bon 1
##tsu 1
message 1
navigation 1
50g 1
fintech 1
h6 1
##ことを 1
8cm 1
##ject 1
##vas 1
##firm 1
credit 1
##wf 1
xxxx 1
form 1
##nor 1
##space 1
huawei 1
plan 1
json 1
sbl 1
##dc 1
machine 1
921 1
392 1
wish 1
##120 1
##sol 1
windows7 1
edward 1
##ために 1
development 1
washington 1
##nsis 1
lo 1
818 1
##sio 1
##ym 1
##bor 1
planet 1
##～8 1
##wt 1
ieee 1
gpa 1
##めて 1
camp 1
ann 1
gm 1
##tw 1
##oka 1
connect 1
##rss 1
##work 1
##atus 1
wall 1
chicken 1
soul 1
2mm 1
##times 1
fa 1
##ather 1
##cord 1
009 1
##eep 1
hitachi 1
gui 1
harry 1
##pan 1
e1 1
disney 1
##press 1
##ーション 1
wind 1
386 1
frigidaire 1
##tl 1
liu 1
hsu 1
332 1
basic 1
von 1
ev 1
いた 1
てきる 1
スホンサーサイト 1
learning 1
##ull 1
expedia 1
archives 1
change 1
##wei 1
santa 1
cut 1
ins 1
6gb 1
turbo 1
brand 1
cf1 1
508 1
004 1
return 1
747 1
##rip 1
h1 1
##nis 1
##をこ 1
128gb 1
##にお 1
3t 1
application 1
しており 1
emc 1
rx 1
##oon 1
384 1
quick 1
412 1
15058 1
wilson 1
wing 1
chapter 1
##bug 1
beyond 1
##cms 1
##dar 1
##oh 1
zoom 1
e2 1
trip 1
sb 1
##nba 1
rcep 1
342 1
aspx 1
ci 1
080 1
gc 1
gnu 1
める 1
##count 1
advanced 1
dance 1
dv 1
##url 1
##ging 1
367 1
8591 1
am09 1
shadow 1
battle 1
346 1
##ｉ 1
##cia 1
##という 1
emily 1
##のてす 1
##tation 1
host 1
ff 1
techorz 1
sars 1
##mini 1
##mporary 1
##ering 1
nc 1
4200 1
798 1
##next 1
cma 1
##mbps 1
##gas 1
##ift 1
##dot 1
##ィ 1
455 1
##～17 1
amana 1
##りの 1
426 1
##ros 1
ir 1
00㎡1 1
##eet 1
##ible 1
##↓ 1
710 1
ˋ▽ˊ 1
##aka 1
dcs 1
iq 1
##ｖ 1
l1 1
##lor 1
maggie 1
##011 1
##iu 1
588 1
##～1 1
830 1
##gt 1
1tb 1
articles 1
create 1
##burg 1
##iki 1
database 1
fantasy 1
##rex 1
##cam 1
dlc 1
dean 1
##you 1
hard 1
path 1
gaming 1
victoria 1
maps 1
cb 1
##lee 1
##itor 1
overchicstoretvhome 1
systems 1
##xt 1
416 1
p3 1
sarah 1
760 1
##nan 1
407 1
486 1
x9 1
install 1
second 1
626 1
##ann 1
##ph 1
##rcle 1
##nic 1
860 1
##nar 1
ec 1
##とう 1
768 1
metro 1
chocolate 1
##rian 1
～4 1
##table 1
##しています 1
skin 1
##sn 1
395 1
mountain 1
##0mm 1
inparadise 1
6m 1
7x24 1
ib 1
4800 1
##jia 1
eeworld 1
creative 1
g5 1
g3 1
357 1
parker 1
ecfa 1
village 1
からの 1
18000 1
sylvia 1
サーヒス 1
hbl 1
##ques 1
##onsored 1
##x2 1
##きます 1
##v4 1
##tein 1
ie6 1
383 1
##stack 1
389 1
ver 1
##ads 1
##baby 1
sound 1
bbe 1
##110 1
##lone 1
##uid 1
ads 1
022 1
gundam 1
351 1
thinkpad 1
006 1
scrum 1
match 1
##ave 1
mems 1
##470 1
##oy 1
##なりました 1
##talk 1
glass 1
lamigo 1
span 1
##eme 1
job 1
##a5 1
jay 1
wade 1
kde 1
498 1
##lace 1
ocean 1
tvg 1
##covery 1
##r3 1
##ners 1
##rea 1
junior 1
think 1
##aine 1
cover 1
##ision 1
##sia 1
↓↓ 1
##bow 1
msi 1
413 1
458 1
406 1
##love 1
711 1
801 1
soft 1
z2 1
##pl 1
456 1
1840 1
mobil 1
mind 1
##uy 1
427 1
nginx 1
##oi 1
めた 1
##rr 1
6221 1
##mple 1
##sson 1
##ーシてす 1
371 1
##nts 1
91tv 1
comhd 1
crv3000 1
##uard 1
1868 1
397 1
deep 1
lost 1
field 1
gallery 1
##bia 1
rate 1
spf 1
redis 1
traction 1
930 1
icloud 1
011 1
なら 1
fe 1
jose 1
372 1
##tory 1
into 1
sohu 1
fx 1
899 1
379 1
kicstart2 1
##hia 1
すく 1
##～3 1
##sit 1
ra 1
２４ 1
##walk 1
##xure 1
500g 1
##pact 1
pacific 1
xa 1
natural 1
carlo 1
##250 1
##walker 1
1850 1
##can 1
cto 1
gigi 1
516 1
##サー 1
pen 1
##hoo 1
ob 1
matlab 1
##ｂ 1
##yy 1
13913459 1
##iti 1
mango 1
##bbs 1
sense 1
c5 1
oxford 1
##ニア 1
walker 1
jennifer 1
##ola 1
course 1
##bre 1
701 1
##pus 1
##rder 1
lucky 1
075 1
##ぁ 1
ivy 1
なお 1
##nia 1
sotheby 1
side 1
##ugh 1
joy 1
##orage 1
##ush 1
##bat 1
##dt 1
364 1
r9 1
##2d 1
##gio 1
511 1
country 1
wear 1
##lax 1
##～7 1
##moon 1
393 1
seven 1
study 1
411 1
348 1
lonzo 1
8k 1
##ェ 1
evolution 1
##イフ 1
##kk 1
gs 1
kd 1
##レス 1
arduino 1
344 1
b12 1
##lux 1
arpg 1
##rdon 1
cook 1
##x5 1
dark 1
five 1
##als 1
##ida 1
とても 1
sign 1
362 1
##ちの 1
something 1
20mm 1
##nda 1
387 1
##posted 1
fresh 1
tf 1
1870 1
422 1
cam 1
##mine 1
##skip 1
##form 1
##ssion 1
education 1
394 1
##tee 1
dyson 1
stage 1
##jie 1
want 1
##night 1
epson 1
pack 1
あります 1
##ppy 1
テリヘル 1
##█ 1
wd 1
##eh 1
##rence 1
left 1
##lvin 1
golden 1
mhz 1
discovery 1
##trix 1
##n2 1
loft 1
##uch 1
##dra 1
##sse 1
speed 1
～1 1
1mdb 1
sorry 1
welcome 1
##urn 1
wave 1
gaga 1
##lmer 1
teddy 1
##160 1
トラックハック 1
せよ 1
611 1
##f2016 1
378 1
rp 1
##sha 1
rar 1
##あなたに 1
##きた 1
840 1
holiday 1
##ュー 1
373 1
074 1
##vg 1
##nos 1
##rail 1
gartner 1
gi 1
6p 1
##dium 1
kit 1
488 1
b3 1
eco 1
##ろう 1
20g 1
sean 1
##stone 1
autocad 1
nu 1
##np 1
f16 1
write 1
029 1
m5 1
##ias 1
images 1
atp 1
##dk 1
fsm 1
504 1
1350 1
ve 1
52kb 1
##xxx 1
##のに 1
##cake 1
414 1
unit 1
lim 1
ru 1
1v 1
##ification 1
published 1
angela 1
16g 1
analytics 1
ak 1
##ｑ 1
##nel 1
gmt 1
##icon 1
again 1
##₂ 1
##bby 1
ios11 1
445 1
かこさいます 1
waze 1
いてす 1
##ハ 1
9985 1
##ust 1
##ティー 1
framework 1
##007 1
iptv 1
delete 1
52sykb 1
cl 1
wwdc 1
027 1
30cm 1
##fw 1
##ての 1
1389 1
##xon 1
brandt 1
##ses 1
##dragon 1
tc 1
vetements 1
anne 1
monte 1
modern 1
official 1
##へて 1
##ere 1
##nne 1
##oud 1
もちろん 1
５０ 1
etnews 1
##a2 1
##graphy 1
421 1
863 1
##ちゃん 1
444 1
##rtex 1
##てお 1
l2 1
##gma 1
mount 1
ccd 1
たと 1
archive 1
morning 1
tan 1
ddos 1
e7 1
##ホ 1
day4 1
##ウ 1
gis 1
453 1
its 1
495 1
factory 1
bruce 1
pg 1
##ito 1
ってくたさい 1
guest 1
cdma 1
##lling 1
536 1
n3 1
しかし 1
3～4 1
mega 1
eyes 1
ro 1
１３ 1
women 1
dac 1
church 1
##jun 1
singapore 1
##facebook 1
6991 1
starbucks 1
##tos 1
##stin 1
##shine 1
zen 1
##mu 1
tina 1
20℃ 1
1893 1
##たけて 1
503 1
465 1
request 1
##gence 1
qt 1
##っ 1
1886 1
347 1
363 1
q7 1
##zzi 1
diary 1
##tore 1
409 1
##ead 1
468 1
cst 1
##osa 1
canada 1
agent 1
va 1
##jiang 1
##ちは 1
##ーク 1
##lam 1
sg 1
##nix 1
##sday 1
##よって 1
g6 1
##master 1
bing 1
##zl 1
charlie 1
１６ 1
8mm 1
nb40 1
##ーン 1
thai 1
##ルフ 1
ln284ct 1
##itz 1
##2f 1
bonnie 1
##food 1
##lent 1
originals 1
##stro 1
##lts 1
418 1
∟∣ 1
##bscribe 1
children 1
ntd 1
yesstyle 1
##かも 1
hmv 1
##tment 1
d5 1
2cm 1
arts 1
sms 1
##pn 1
##я 1
##いい 1
topios9 1
539 1
lifestyle 1
virtual 1
##ague 1
xz 1
##deo 1
muji 1
024 1
unt 1
##nnis 1
##ᅩ 1
faq1 1
1884 1
396 1
##ette 1
fly 1
64㎡ 1
はしめまして 1
441 1
curry 1
##pop 1
のこ 1
release 1
##← 1
##◆◆ 1
##cast 1
073 1
ありな 1
500ml 1
##ews 1
5c 1
##stle 1
ios7 1
##ima 1
787 1
dog 1
lenovo 1
##r4 1
roger 1
013 1
cbs 1
vornado 1
100m 1
417 1
##desk 1
##クok 1
##ald 1
1867 1
9595 1
2900 1
##van 1
oil 1
##ｘ 1
some 1
break 1
common 1
##jy 1
##lines 1
g7 1
twice 1
419 1
ella 1
nano 1
belle 1
にこ 1
##mes 1
##self 1
##note 1
jb 1
##ことかてきます 1
benz 1
##との 1
##ova 1
451 1
save 1
##wing 1
##ますのて 1
kai 1
りは 1
##hua 1
##rect 1
rainer 1
##unge 1
448 1
##0m 1
adsl 1
##かな 1
guestname 1
##uma 1
##kins 1
##zu 1
tokichoi 1
##price 1
county 1
##med 1
##mus 1
rmk 1
391 1
address 1
vm 1
えて 1
openload 1
##group 1
##hin 1
##iginal 1
amg 1
urban 1
##oz 1
jobs 1
emi 1
##public 1
beautiful 1
##sch 1
album 1
##dden 1
##bell 1
jerry 1
works 1
hostel 1
miller 1
##drive 1
##rmin 1
##１０ 1
376 1
boot 1
828 1
##370 1
##fx 1
##cm～ 1
1885 1
##nome 1
##ctionary 1
##oman 1
##lish 1
##cr 1
##hm 1
433 1
##how 1
432 1
francis 1
xi 1
c919 1
b5 1
evernote 1
##uc 1
vga 1
##3000 1
coupe 1
##urg 1
##cca 1
##uality 1
019 1
6g 1
れる 1
multi 1
##また 1
##ett 1
em 1
hey 1
##ani 1
##tax 1
##rma 1
inside 1
than 1
740 1
leonnhurt 1
##jin 1
ict 1
れた 1
bird 1
notes 1
200mm 1
くの 1
##dical 1
##lli 1
result 1
442 1
iu 1
ee 1
438 1
smap 1
gopro 1
##last 1
yin 1
pure 1
998 1
32g 1
けた 1
5kg 1
##dan 1
##rame 1
mama 1
##oot 1
bean 1
marketing 1
##hur 1
2l 1
bella 1
sync 1
xuite 1
##ground 1
515 1
discuz 1
##getrelax 1
##ince 1
##bay 1
##5s 1
cj 1
##イス 1
gmat 1
apt 1
##pass 1
jing 1
##rix 1
c4 1
rich 1
##とても 1
niusnews 1
##ello 1
bag 1
770 1
##eting 1
##mobile 1
１８ 1
culture 1
015 1
##のてすか 1
377 1
1020 1
area 1
##ience 1
616 1
details 1
gp 1
universal 1
silver 1
dit 1
はお 1
private 1
ddd 1
u11 1
kanshu 1
##ified 1
fung 1
##nny 1
dx 1
##520 1
tai 1
475 1
023 1
##fr 1
##lean 1
3s 1
##pin 1
429 1
##rin 1
25000 1
ly 1
rick 1
##bility 1
usb3 1
banner 1
##baru 1
##gion 1
metal 1
dt 1
vdf 1
1871 1
karl 1
qualcomm 1
bear 1
1010 1
oldid 1
ian 1
jo 1
##tors 1
population 1
##ernel 1
1882 1
mmorpg 1
##mv 1
##bike 1
603 1
##© 1
ww 1
friend 1
##ager 1
exhibition 1
##del 1
##pods 1
fpx 1
structure 1
##free 1
##tings 1
kl 1
##rley 1
##copyright 1
##mma 1
california 1
3400 1
orange 1
yoga 1
4l 1
canmake 1
honey 1
##anda 1
##コメント 1
595 1
nikkie 1
##ルハイト 1
dhl 1
publishing 1
##mall 1
##gnet 1
20cm 1
513 1
##クセス 1
##┅ 1
e88 1
970 1
##dog 1
fishbase 1
##! 1
##" 1
### 1
##$ 1
##% 1
##& 1
##' 1
##( 1
##) 1
##* 1
##+ 1
##, 1
##- 1
##. 1
##/ 1
##: 1
##; 1
##< 1
##= 1
##> 1
##? 1
##@ 1
##[ 1
##\ 1
##] 1
##^ 1
##_ 1
##{ 1
##| 1
##} 1
##~ 1
##£ 1
##¤ 1
##¥ 1
##§ 1
##« 1
##± 1
##³ 1
##µ 1
##· 1
##¹ 1
##º 1
##» 1
##¼ 1
##ß 1
##æ 1
##÷ 1
##ø 1
##đ 1
##ŋ 1
##ɔ 1
##ə 1
##ɡ 1
##ʰ 1
##ˇ 1
##ˈ 1
##ˊ 1
##ˋ 1
##ˍ 1
##ː 1
##˙ 1
##˚ 1
##ˢ 1
##α 1
##β 1
##γ 1
##δ 1
##ε 1
##η 1
##θ 1
##ι 1
##κ 1
##λ 1
##μ 1
##ν 1
##ο 1
##π 1
##ρ 1
##ς 1
##σ 1
##τ 1
##υ 1
##φ 1
##χ 1
##ψ 1
##б 1
##в 1
##г 1
##д 1
##е 1
##ж 1
##з 1
##к 1
##л 1
##м 1
##н 1
##о 1
##п 1
##р 1
##с 1
##т 1
##у 1
##ф 1
##х 1
##ц 1
##ч 1
##ш 1
##ы 1
##ь 1
##і 1
##ا 1
##ب 1
##ة 1
##ت 1
##د 1
##ر 1
##س 1
##ع 1
##ل 1
##م 1
##ن 1
##ه 1
##و 1
##ي 1
##۩ 1
##ก 1
##ง 1
##น 1
##ม 1
##ย 1
##ร 1
##อ 1
##า 1
##เ 1
##๑ 1
##་ 1
##ღ 1
##ᄀ 1
##ᄁ 1
##ᄂ 1
##ᄃ 1
##ᄅ 1
##ᄆ 1
##ᄇ 1
##ᄈ 1
##ᄉ 1
##ᄋ 1
##ᄌ 1
##ᄎ 1
##ᄏ 1
##ᄐ 1
##ᄑ 1
##ᄒ 1
##ᅢ 1
##ᅣ 1
##ᅥ 1
##ᅦ 1
##ᅧ 1
##ᅨ 1
##ᅪ 1
##ᅬ 1
##ᅭ 1
##ᅮ 1
##ᅯ 1
##ᅲ 1
##ᅳ 1
##ᅴ 1
##ᆷ 1
##ᆸ 1
##ᆺ 1
##ᆻ 1
##ᗜ 1
##ᵃ 1
##ᵉ 1
##ᵍ 1
##ᵏ 1
##ᵐ 1
##ᵒ 1
##ᵘ 1
##‖ 1
##„ 1
##† 1
##• 1
##‥ 1
##‧ 1
## 1
##‰ 1
##′ 1
##″ 1
##‹ 1
##› 1
##※ 1
##‿ 1
##⁄ 1
##ⁱ 1
##⁺ 1
##ⁿ 1
##₁ 1
##₃ 1
##₄ 1
##€ 1
##№ 1
##ⅰ 1
##ⅱ 1
##ⅲ 1
##ⅳ 1
##ⅴ 1
##↔ 1
##↗ 1
##↘ 1
##⇒ 1
##∀ 1
##− 1
##∕ 1
##∙ 1
##√ 1
##∞ 1
##∟ 1
##∠ 1
##∣ 1
##∩ 1
##∮ 1
##∶ 1
##∼ 1
##∽ 1
##≈ 1
##≒ 1
##≡ 1
##≤ 1
##≥ 1
##≦ 1
##≧ 1
##≪ 1
##≫ 1
##⊙ 1
##⋅ 1
##⋈ 1
##⋯ 1
##⌒ 1
##① 1
##② 1
##③ 1
##④ 1
##⑤ 1
##⑥ 1
##⑦ 1
##⑧ 1
##⑨ 1
##⑩ 1
##⑴ 1
##⑵ 1
##⑶ 1
##⑷ 1
##⑸ 1
##⒈ 1
##⒉ 1
##⒊ 1
##⒋ 1
##ⓒ 1
##ⓔ 1
##ⓘ 1
##━ 1
##┃ 1
##┆ 1
##┊ 1
##┌ 1
##└ 1
##├ 1
##┣ 1
##═ 1
##║ 1
##╚ 1
##╞ 1
##╠ 1
##╭ 1
##╮ 1
##╯ 1
##╰ 1
##╱ 1
##╳ 1
##▂ 1
##▃ 1
##▅ 1
##▇ 1
##▉ 1
##▋ 1
##▌ 1
##▍ 1
##▎ 1
##□ 1
##▪ 1
##▫ 1
##▬ 1
##△ 1
##▶ 1
##► 1
##▽ 1
##◇ 1
##◕ 1
##◠ 1
##◢ 1
##◤ 1
##☀ 1
##☕ 1
##☞ 1
##☺ 1
##☼ 1
##♀ 1
##♂ 1
##♠ 1
##♡ 1
##♣ 1
##♦ 1
##♫ 1
##♬ 1
##✈ 1
##✔ 1
##✕ 1
##✖ 1
##✦ 1
##✨ 1
##✪ 1
##✰ 1
##✿ 1
##❀ 1
##➜ 1
##➤ 1
##⦿ 1
##、 1
##。 1
##〃 1
##々 1
##〇 1
##〈 1
##〉 1
##《 1
##》 1
##「 1
##」 1
##『 1
##』 1
##【 1
##】 1
##〓 1
##〔 1
##〕 1
##〖 1
##〗 1
##〜 1
##〝 1
##〞 1
##ぃ 1
##ぇ 1
##ぬ 1
##ふ 1
##ほ 1
##む 1
##ゃ 1
##ゅ 1
##ゆ 1
##ょ 1
##゜ 1
##ゝ 1
##ァ 1
##ゥ 1
##エ 1
##ォ 1
##ケ 1
##サ 1
##セ 1
##ソ 1
##ッ 1
##ニ 1
##ヌ 1
##ネ 1
##ノ 1
##ヘ 1
##モ 1
##ャ 1
##ヤ 1
##ュ 1
##ユ 1
##ョ 1
##ヨ 1
##ワ 1
##ヲ 1
##・ 1
##ヽ 1
##ㄅ 1
##ㄆ 1
##ㄇ 1
##ㄉ 1
##ㄋ 1
##ㄌ 1
##ㄍ 1
##ㄎ 1
##ㄏ 1
##ㄒ 1
##ㄚ 1
##ㄛ 1
##ㄞ 1
##ㄟ 1
##ㄢ 1
##ㄤ 1
##ㄥ 1
##ㄧ 1
##ㄨ 1
##ㆍ 1
##㈦ 1
##㊣ 1
##㗎 1
##一 1
##丁 1
##七 1
##万 1
##丈 1
##三 1
##上 1
##下 1
##不 1
##与 1
##丐 1
##丑 1
##专 1
##且 1
##丕 1
##世 1
##丘 1
##丙 1
##业 1
##丛 1
##东 1
##丝 1
##丞 1
##丟 1
##両 1
##丢 1
##两 1
##严 1
##並 1
##丧 1
##丨 1
##个 1
##丫 1
##中 1
##丰 1
##串 1
##临 1
##丶 1
##丸 1
##丹 1
##为 1
##主 1
##丼 1
##丽 1
##举 1
##丿 1
##乂 1
##乃 1
##久 1
##么 1
##义 1
##之 1
##乌 1
##乍 1
##乎 1
##乏 1
##乐 1
##乒 1
##乓 1
##乔 1
##乖 1
##乗 1
##乘 1
##乙 1
##乜 1
##九 1
##乞 1
##也 1
##习 1
##乡 1
##书 1
##乩 1
##买 1
##乱 1
##乳 1
##乾 1
##亀 1
##亂 1
##了 1
##予 1
##争 1
##事 1
##二 1
##于 1
##亏 1
##云 1
##互 1
##五 1
##井 1
##亘 1
##亙 1
##亚 1
##些 1
##亜 1
##亞 1
##亟 1
##亡 1
##亢 1
##交 1
##亥 1
##亦 1
##产 1
##亨 1
##亩 1
##享 1
##京 1
##亭 1
##亮 1
##亲 1
##亳 1
##亵 1
##人 1
##亿 1
##什 1
##仁 1
##仃 1
##仄 1
##仅 1
##仆 1
##仇 1
##今 1
##介 1
##仍 1
##从 1
##仏 1
##仑 1
##仓 1
##仔 1
##仕 1
##他 1
##仗 1
##付 1
##仙 1
##仝 1
##仞 1
##仟 1
##代 1
##令 1
##以 1
##仨 1
##仪 1
##们 1
##仮 1
##仰 1
##仲 1
##件 1
##价 1
##任 1
##份 1
##仿 1
##企 1
##伉 1
##伊 1
##伍 1
##伎 1
##伏 1
##伐 1
##休 1
##伕 1
##众 1
##优 1
##伙 1
##会 1
##伝 1
##伞 1
##伟 1
##传 1
##伢 1
##伤 1
##伦 1
##伪 1
##伫 1
##伯 1
##估 1
##伴 1
##伶 1
##伸 1
##伺 1
##似 1
##伽 1
##佃 1
##但 1
##佇 1
##佈 1
##位 1
##低 1
##住 1
##佐 1
##佑 1
##体 1
##佔 1
##何 1
##佗 1
##佘 1
##余 1
##佚 1
##佛 1
##作 1
##佝 1
##佞 1
##佟 1
##你 1
##佢 1
##佣 1
##佤 1
##佥 1
##佩 1
##佬 1
##佯 1
##佰 1
##佳 1
##併 1
##佶 1
##佻 1
##佼 1
##使 1
##侃 1
##侄 1
##來 1
##侈 1
##例 1
##侍 1
##侏 1
##侑 1
##侖 1
##侗 1
##供 1
##依 1
##侠 1
##価 1
##侣 1
##侥 1
##侦 1
##侧 1
##侨 1
##侬 1
##侮 1
##侯 1
##侵 1
##侶 1
##侷 1
##便 1
##係 1
##促 1
##俄 1
##俊 1
##俎 1
##俏 1
##俐 1
##俑 1
##俗 1
##俘 1
##俚 1
##保 1
##俞 1
##俟 1
##俠 1
##信 1
##俨 1
##俩 1
##俪 1
##俬 1
##俭 1
##修 1
##俯 1
##俱 1
##俳 1
##俸 1
##俺 1
##俾 1
##倆 1
##倉 1
##個 1
##倌 1
##倍 1
##倏 1
##們 1
##倒 1
##倔 1
##倖 1
##倘 1
##候 1
##倚 1
##倜 1
##借 1
##倡 1
##値 1
##倦 1
##倩 1
##倪 1
##倫 1
##倬 1
##倭 1
##倶 1
##债 1
##值 1
##倾 1
##偃 1
##假 1
##偈 1
##偉 1
##偌 1
##偎 1
##偏 1
##偕 1
##做 1
##停 1
##健 1
##側 1
##偵 1
##偶 1
##偷 1
##偻 1
##偽 1
##偿 1
##傀 1
##傅 1
##傍 1
##傑 1
##傘 1
##備 1
##傚 1
##傢 1
##傣 1
##傥 1
##储 1
##傩 1
##催 1
##傭 1
##傲 1
##傳 1
##債 1
##傷 1
##傻 1
##傾 1
##僅 1
##働 1
##像 1
##僑 1
##僕 1
##僖 1
##僚 1
##僥 1
##僧 1
##僭 1
##僮 1
##僱 1
##僵 1
##價 1
##僻 1
##儀 1
##儂 1
##億 1
##儆 1
##儉 1
##儋 1
##儒 1
##儕 1
##儘 1
##償 1
##儡 1
##優 1
##儲 1
##儷 1
##儼 1
##儿 1
##兀 1
##允 1
##元 1
##兄 1
##充 1
##兆 1
##兇 1
##先 1
##光 1
##克 1
##兌 1
##免 1
##児 1
##兑 1
##兒 1
##兔 1
##兖 1
##党 1
##兜 1
##兢 1
##入 1
##內 1
##全 1
##兩 1
##八 1
##公 1
##六 1
##兮 1
##兰 1
##共 1
##兲 1
##关 1
##兴 1
##兵 1
##其 1
##具 1
##典 1
##兹 1
##养 1
##兼 1
##兽 1
##冀 1
##内 1
##円 1
##冇 1
##冈 1
##冉 1
##冊 1
##册 1
##再 1
##冏 1
##冒 1
##冕 1
##冗 1
##写 1
##军 1
##农 1
##冠 1
##冢 1
##冤 1
##冥 1
##冨 1
##冪 1
##冬 1
##冯 1
##冰 1
##冲 1
##决 1
##况 1
##冶 1
##冷 1
##冻 1
##冼 1
##冽 1
##冾 1
##净 1
##凄 1
##准 1
##凇 1
##凈 1
##凉 1
##凋 1
##凌 1
##凍 1
##减 1
##凑 1
##凛 1
##凜 1
##凝 1
##几 1
##凡 1
##凤 1
##処 1
##凪 1
##凭 1
##凯 1
##凰 1
##凱 1
##凳 1
##凶 1
##凸 1
##凹 1
##出 1
##击 1
##函 1
##凿 1
##刀 1
##刁 1
##刃 1
##分 1
##切 1
##刈 1
##刊 1
##刍 1
##刎 1
##刑 1
##划 1
##列 1
##刘 1
##则 1
##刚 1
##创 1
##初 1
##删 1
##判 1
##別 1
##刨 1
##利 1
##刪 1
##别 1
##刮 1
##到 1
##制 1
##刷 1
##券 1
##刹 1
##刺 1
##刻 1
##刽 1
##剁 1
##剂 1
##剃 1
##則 1
##剉 1
##削 1
##剋 1
##剌 1
##前 1
##剎 1
##剐 1
##剑 1
##剔 1
##剖 1
##剛 1
##剜 1
##剝 1
##剣 1
##剤 1
##剥 1
##剧 1
##剩 1
##剪 1
##副 1
##割 1
##創 1
##剷 1
##剽 1
##剿 1
##劃 1
##劇 1
##劈 1
##劉 1
##劊 1
##劍 1
##劏 1
##劑 1
##力 1
##劝 1
##办 1
##功 1
##加 1
##务 1
##劣 1
##动 1
##助 1
##努 1
##劫 1
##劭 1
##励 1
##劲 1
##劳 1
##労 1
##劵 1
##効 1
##劾 1
##势 1
##勁 1
##勃 1
##勇 1
##勉 1
##勋 1
##勐 1
##勒 1
##動 1
##勖 1
##勘 1
##務 1
##勛 1
##勝 1
##勞 1
##募 1
##勢 1
##勤 1
##勧 1
##勳 1
##勵 1
##勸 1
##勺 1
##勻 1
##勾 1
##勿 1
##匀 1
##包 1
##匆 1
##匈 1
##匍 1
##匐 1
##匕 1
##化 1
##北 1
##匙 1
##匝 1
##匠 1
##匡 1
##匣 1
##匪 1
##匮 1
##匯 1
##匱 1
##匹 1
##区 1
##医 1
##匾 1
##匿 1
##區 1
##十 1
##千 1
##卅 1
##升 1
##午 1
##卉 1
##半 1
##卍 1
##华 1
##协 1
##卑 1
##卒 1
##卓 1
##協 1
##单 1
##卖 1
##南 1
##単 1
##博 1
##卜 1
##卞 1
##卟 1
##占 1
##卡 1
##卢 1
##卤 1
##卦 1
##卧 1
##卫 1
##卮 1
##卯 1
##印 1
##危 1
##即 1
##却 1
##卵 1
##卷 1
##卸 1
##卻 1
##卿 1
##厂 1
##厄 1
##厅 1
##历 1
##厉 1
##压 1
##厌 1
##厕 1
##厘 1
##厚 1
##厝 1
##原 1
##厢 1
##厥 1
##厦 1
##厨 1
##厩 1
##厭 1
##厮 1
##厲 1
##厳 1
##去 1
##县 1
##叁 1
##参 1
##參 1
##又 1
##叉 1
##及 1
##友 1
##双 1
##反 1
##収 1
##发 1
##叔 1
##取 1
##受 1
##变 1
##叙 1
##叛 1
##叟 1
##叠 1
##叡 1
##叢 1
##口 1
##古 1
##句 1
##另 1
##叨 1
##叩 1
##只 1
##叫 1
##召 1
##叭 1
##叮 1
##可 1
##台 1
##叱 1
##史 1
##右 1
##叵 1
##叶 1
##号 1
##司 1
##叹 1
##叻 1
##叼 1
##叽 1
##吁 1
##吃 1
##各 1
##吆 1
##合 1
##吉 1
##吊 1
##吋 1
##同 1
##名 1
##后 1
##吏 1
##吐 1
##向 1
##吒 1
##吓 1
##吕 1
##吖 1
##吗 1
##君 1
##吝 1
##吞 1
##吟 1
##吠 1
##吡 1
##否 1
##吧 1
##吨 1
##吩 1
##含 1
##听 1
##吭 1
##吮 1
##启 1
##吱 1
##吳 1
##吴 1
##吵 1
##吶 1
##吸 1
##吹 1
##吻 1
##吼 1
##吽 1
##吾 1
##呀 1
##呂 1
##呃 1
##呆 1
##呈 1
##告 1
##呋 1
##呎 1
##呐 1
##呓 1
##呕 1
##呗 1
##员 1
##呛 1
##呜 1
##呢 1
##呤 1
##呦 1
##周 1
##呱 1
##呲 1
##味 1
##呵 1
##呷 1
##呸 1
##呻 1
##呼 1
##命 1
##咀 1
##咁 1
##咂 1
##咄 1
##咆 1
##咋 1
##和 1
##咎 1
##咏 1
##咐 1
##咒 1
##咔 1
##咕 1
##咖 1
##咗 1
##咘 1
##咙 1
##咚 1
##咛 1
##咣 1
##咤 1
##咦 1
##咧 1
##咨 1
##咩 1
##咪 1
##咫 1
##咬 1
##咭 1
##咯 1
##咱 1
##咲 1
##咳 1
##咸 1
##咻 1
##咽 1
##咿 1
##哀 1
##品 1
##哂 1
##哄 1
##哆 1
##哇 1
##哈 1
##哉 1
##哋 1
##哌 1
##响 1
##哎 1
##哏 1
##哐 1
##哑 1
##哒 1
##哔 1
##哗 1
##哟 1
##員 1
##哥 1
##哦 1
##哧 1
##哨 1
##哩 1
##哪 1
##哭 1
##哮 1
##哲 1
##哺 1
##哼 1
##哽 1
##唁 1
##唄 1
##唆 1
##唇 1
##唉 1
##唏 1
##唐 1
##唑 1
##唔 1
##唠 1
##唤 1
##唧 1
##唬 1
##售 1
##唯 1
##唰 1
##唱 1
##唳 1
##唷 1
##唸 1
##唾 1
##啃 1
##啄 1
##商 1
##啉 1
##啊 1
##問 1
##啓 1
##啕 1
##啖 1
##啜 1
##啞 1
##啟 1
##啡 1
##啤 1
##啥 1
##啦 1
##啧 1
##啪 1
##啫 1
##啬 1
##啮 1
##啰 1
##啱 1
##啲 1
##啵 1
##啶 1
##啷 1
##啸 1
##啻 1
##啼 1
##啾 1
##喀 1
##喂 1
##喃 1
##善 1
##喆 1
##喇 1
##喉 1
##喊 1
##喋 1
##喎 1
##喏 1
##喔 1
##喘 1
##喙 1
##喚 1
##喜 1
##喝 1
##喟 1
##喧 1
##喪 1
##喫 1
##喬 1
##單 1
##喰 1
##喱 1
##喲 1
##喳 1
##喵 1
##営 1
##喷 1
##喹 1
##喺 1
##喻 1
##喽 1
##嗅 1
##嗆 1
##嗇 1
##嗎 1
##嗑 1
##嗒 1
##嗓 1
##嗔 1
##嗖 1
##嗚 1
##嗜 1
##嗝 1
##嗟 1
##嗡 1
##嗣 1
##嗤 1
##嗦 1
##嗨 1
##嗪 1
##嗬 1
##嗯 1
##嗰 1
##嗲 1
##嗳 1
##嗶 1
##嗷 1
##嗽 1
##嘀 1
##嘅 1
##嘆 1
##嘈 1
##嘉 1
##嘌 1
##嘍 1
##嘎 1
##嘔 1
##嘖 1
##嘗 1
##嘘 1
##嘚 1
##嘛 1
##嘜 1
##嘞 1
##嘟 1
##嘢 1
##嘣 1
##嘤 1
##嘧 1
##嘩 1
##嘭 1
##嘮 1
##嘯 1
##嘰 1
##嘱 1
##嘲 1
##嘴 1
##嘶 1
##嘸 1
##嘹 1
##嘻 1
##嘿 1
##噁 1
##噌 1
##噎 1
##噓 1
##噔 1
##噗 1
##噙 1
##噜 1
##噠 1
##噢 1
##噤 1
##器 1
##噩 1
##噪 1
##噬 1
##噱 1
##噴 1
##噶 1
##噸 1
##噹 1
##噻 1
##噼 1
##嚀 1
##嚇 1
##嚎 1
##嚏 1
##嚐 1
##嚓 1
##嚕 1
##嚟 1
##嚣 1
##嚥 1
##嚨 1
##嚮 1
##嚴 1
##嚷 1
##嚼 1
##囂 1
##囉 1
##囊 1
##囍 1
##囑 1
##囔 1
##囗 1
##囚 1
##四 1
##囝 1
##回 1
##囟 1
##因 1
##囡 1
##团 1
##団 1
##囤 1
##囧 1
##囪 1
##囫 1
##园 1
##困 1
##囱 1
##囲 1
##図 1
##围 1
##囹 1
##固 1
##国 1
##图 1
##囿 1
##圃 1
##圄 1
##圆 1
##圈 1
##國 1
##圍 1
##圏 1
##園 1
##圓 1
##圖 1
##團 1
##圜 1
##土 1
##圣 1
##圧 1
##在 1
##圩 1
##圭 1
##地 1
##圳 1
##场 1
##圻 1
##圾 1
##址 1
##坂 1
##均 1
##坊 1
##坍 1
##坎 1
##坏 1
##坐 1
##坑 1
##块 1
##坚 1
##坛 1
##坝 1
##坞 1
##坟 1
##坠 1
##坡 1
##坤 1
##坦 1
##坨 1
##坪 1
##坯 1
##坳 1
##坵 1
##坷 1
##垂 1
##垃 1
##垄 1
##型 1
##垒 1
##垚 1
##垛 1
##垠 1
##垢 1
##垣 1
##垦 1
##垩 1
##垫 1
##垭 1
##垮 1
##垵 1
##埂 1
##埃 1
##埋 1
##城 1
##埔 1
##埕 1
##埗 1
##域 1
##埠 1
##埤 1
##埵 1
##執 1
##埸 1
##培 1
##基 1
##埼 1
##堀 1
##堂 1
##堃 1
##堅 1
##堆 1
##堇 1
##堑 1
##堕 1
##堙 1
##堡 1
##堤 1
##堪 1
##堯 1
##堰 1
##報 1
##場 1
##堵 1
##堺 1
##堿 1
##塊 1
##塌 1
##塑 1
##塔 1
##塗 1
##塘 1
##塚 1
##塞 1
##塢 1
##塩 1
##填 1
##塬 1
##塭 1
##塵 1
##塾 1
##墀 1
##境 1
##墅 1
##墉 1
##墊 1
##墒 1
##墓 1
##増 1
##墘 1
##墙 1
##墜 1
##增 1
##墟 1
##墨 1
##墩 1
##墮 1
##墳 1
##墻 1
##墾 1
##壁 1
##壅 1
##壆 1
##壇 1
##壊 1
##壑 1
##壓 1
##壕 1
##壘 1
##壞 1
##壟 1
##壢 1
##壤 1
##壩 1
##士 1
##壬 1
##壮 1
##壯 1
##声 1
##売 1
##壳 1
##壶 1
##壹 1
##壺 1
##壽 1
##处 1
##备 1
##変 1
##复 1
##夏 1
##夔 1
##夕 1
##外 1
##夙 1
##多 1
##夜 1
##够 1
##夠 1
##夢 1
##夥 1
##大 1
##天 1
##太 1
##夫 1
##夭 1
##央 1
##夯 1
##失 1
##头 1
##夷 1
##夸 1
##夹 1
##夺 1
##夾 1
##奂 1
##奄 1
##奇 1
##奈 1
##奉 1
##奋 1
##奎 1
##奏 1
##奐 1
##契 1
##奔 1
##奕 1
##奖 1
##套 1
##奘 1
##奚 1
##奠 1
##奢 1
##奥 1
##奧 1
##奪 1
##奬 1
##奮 1
##女 1
##奴 1
##奶 1
##奸 1
##她 1
##好 1
##如 1
##妃 1
##妄 1
##妆 1
##妇 1
##妈 1
##妊 1
##妍 1
##妒 1
##妓 1
##妖 1
##妘 1
##妙 1
##妝 1
##妞 1
##妣 1
##妤 1
##妥 1
##妨 1
##妩 1
##妪 1
##妮 1
##妲 1
##妳 1
##妹 1
##妻 1
##妾 1
##姆 1
##姉 1
##姊 1
##始 1
##姍 1
##姐 1
##姑 1
##姒 1
##姓 1
##委 1
##姗 1
##姚 1
##姜 1
##姝 1
##姣 1
##姥 1
##姦 1
##姨 1
##姪 1
##姫 1
##姬 1
##姹 1
##姻 1
##姿 1
##威 1
##娃 1
##娄 1
##娅 1
##娆 1
##娇 1
##娉 1
##娑 1
##娓 1
##娘 1
##娛 1
##娜 1
##娟 1
##娠 1
##娣 1
##娥 1
##娩 1
##娱 1
##娲 1
##娴 1
##娶 1
##娼 1
##婀 1
##婁 1
##婆 1
##婉 1
##婊 1
##婕 1
##婚 1
##婢 1
##婦 1
##婧 1
##婪 1
##婭 1
##婴 1
##婵 1
##婶 1
##婷 1
##婺 1
##婿 1
##媒 1
##媚 1
##媛 1
##媞 1
##媧 1
##媲 1
##媳 1
##媽 1
##媾 1
##嫁 1
##嫂 1
##嫉 1
##嫌 1
##嫑 1
##嫔 1
##嫖 1
##嫘 1
##嫚 1
##嫡 1
##嫣 1
##嫦 1
##嫩 1
##嫲 1
##嫵 1
##嫻 1
##嬅 1
##嬉 1
##嬌 1
##嬗 1
##嬛 1
##嬢 1
##嬤 1
##嬪 1
##嬰 1
##嬴 1
##嬷 1
##嬸 1
##嬿 1
##孀 1
##孃 1
##子 1
##孑 1
##孔 1
##孕 1
##孖 1
##字 1
##存 1
##孙 1
##孚 1
##孛 1
##孜 1
##孝 1
##孟 1
##孢 1
##季 1
##孤 1
##学 1
##孩 1
##孪 1
##孫 1
##孬 1
##孰 1
##孱 1
##孳 1
##孵 1
##學 1
##孺 1
##孽 1
##孿 1
##宁 1
##它 1
##宅 1
##宇 1
##守 1
##安 1
##宋 1
##完 1
##宏 1
##宓 1
##宕 1
##宗 1
##官 1
##宙 1
##定 1
##宛 1
##宜 1
##宝 1
##实 1
##実 1
##宠 1
##审 1
##客 1
##宣 1
##室 1
##宥 1
##宦 1
##宪 1
##宫 1
##宮 1
##宰 1
##害 1
##宴 1
##宵 1
##家 1
##宸 1
##容 1
##宽 1
##宾 1
##宿 1
##寂 1
##寄 1
##寅 1
##密 1
##寇 1
##富 1
##寐 1
##寒 1
##寓 1
##寛 1
##寝 1
##寞 1
##察 1
##寡 1
##寢 1
##寥 1
##實 1
##寧 1
##寨 1
##審 1
##寫 1
##寬 1
##寮 1
##寰 1
##寵 1
##寶 1
##寸 1
##对 1
##寺 1
##寻 1
##导 1
##対 1
##寿 1
##封 1
##専 1
##射 1
##将 1
##將 1
##專 1
##尉 1
##尊 1
##尋 1
##對 1
##導 1
##小 1
##少 1
##尔 1
##尕 1
##尖 1
##尘 1
##尚 1
##尝 1
##尤 1
##尧 1
##尬 1
##就 1
##尴 1
##尷 1
##尸 1
##尹 1
##尺 1
##尻 1
##尼 1
##尽 1
##尾 1
##尿 1
##局 1
##屁 1
##层 1
##屄 1
##居 1
##屆 1
##屈 1
##屉 1
##届 1
##屋 1
##屌 1
##屍 1
##屎 1
##屏 1
##屐 1
##屑 1
##展 1
##屜 1
##属 1
##屠 1
##屡 1
##屢 1
##層 1
##履 1
##屬 1
##屯 1
##山 1
##屹 1
##屿 1
##岀 1
##岁 1
##岂 1
##岌 1
##岐 1
##岑 1
##岔 1
##岖 1
##岗 1
##岘 1
##岙 1
##岚 1
##岛 1
##岡 1
##岩 1
##岫 1
##岬 1
##岭 1
##岱 1
##岳 1
##岷 1
##岸 1
##峇 1
##峋 1
##峒 1
##峙 1
##峡 1
##峤 1
##峥 1
##峦 1
##峨 1
##峪 1
##峭 1
##峯 1
##峰 1
##峴 1
##島 1
##峻 1
##峽 1
##崁 1
##崂 1
##崆 1
##崇 1
##崎 1
##崑 1
##崔 1
##崖 1
##崗 1
##崙 1
##崛 1
##崧 1
##崩 1
##崭 1
##崴 1
##崽 1
##嵇 1
##嵊 1
##嵋 1
##嵌 1
##嵐 1
##嵘 1
##嵩 1
##嵬 1
##嵯 1
##嶂 1
##嶄 1
##嶇 1
##嶋 1
##嶙 1
##嶺 1
##嶼 1
##嶽 1
##巅 1
##巍 1
##巒 1
##巔 1
##巖 1
##川 1
##州 1
##巡 1
##巢 1
##工 1
##左 1
##巧 1
##巨 1
##巩 1
##巫 1
##差 1
##己 1
##已 1
##巳 1
##巴 1
##巷 1
##巻 1
##巽 1
##巾 1
##巿 1
##币 1
##市 1
##布 1
##帅 1
##帆 1
##师 1
##希 1
##帐 1
##帑 1
##帕 1
##帖 1
##帘 1
##帚 1
##帛 1
##帜 1
##帝 1
##帥 1
##带 1
##帧 1
##師 1
##席 1
##帮 1
##帯 1
##帰 1
##帳 1
##帶 1
##帷 1
##常 1
##帼 1
##帽 1
##幀 1
##幂 1
##幄 1
##幅 1
##幌 1
##幔 1
##幕 1
##幟 1
##幡 1
##幢 1
##幣 1
##幫 1
##干 1
##平 1
##年 1
##并 1
##幸 1
##幹 1
##幺 1
##幻 1
##幼 1
##幽 1
##幾 1
##广 1
##庁 1
##広 1
##庄 1
##庆 1
##庇 1
##床 1
##序 1
##庐 1
##库 1
##应 1
##底 1
##庖 1
##店 1
##庙 1
##庚 1
##府 1
##庞 1
##废 1
##庠 1
##度 1
##座 1
##庫 1
##庭 1
##庵 1
##庶 1
##康 1
##庸 1
##庹 1
##庾 1
##廁 1
##廂 1
##廃 1
##廈 1
##廉 1
##廊 1
##廓 1
##廖 1
##廚 1
##廝 1
##廟 1
##廠 1
##廢 1
##廣 1
##廬 1
##廳 1
##延 1
##廷 1
##建 1
##廿 1
##开 1
##弁 1
##异 1
##弃 1
##弄 1
##弈 1
##弊 1
##弋 1
##式 1
##弑 1
##弒 1
##弓 1
##弔 1
##引 1
##弗 1
##弘 1
##弛 1
##弟 1
##张 1
##弥 1
##弦 1
##弧 1
##弩 1
##弭 1
##弯 1
##弱 1
##張 1
##強 1
##弹 1
##强 1
##弼 1
##弾 1
##彅 1
##彆 1
##彈 1
##彌 1
##彎 1
##归 1
##当 1
##录 1
##彗 1
##彙 1
##彝 1
##形 1
##彤 1
##彥 1
##彦 1
##彧 1
##彩 1
##彪 1
##彫 1
##彬 1
##彭 1
##彰 1
##影 1
##彷 1
##役 1
##彻 1
##彼 1
##彿 1
##往 1
##征 1
##径 1
##待 1
##徇 1
##很 1
##徉 1
##徊 1
##律 1
##後 1
##徐 1
##徑 1
##徒 1
##従 1
##徕 1
##得 1
##徘 1
##徙 1
##徜 1
##從 1
##徠 1
##御 1
##徨 1
##復 1
##循 1
##徬 1
##微 1
##徳 1
##徴 1
##徵 1
##德 1
##徹 1
##徼 1
##徽 1
##心 1
##必 1
##忆 1
##忌 1
##忍 1
##忏 1
##忐 1
##忑 1
##忒 1
##忖 1
##志 1
##忘 1
##忙 1
##応 1
##忠 1
##忡 1
##忤 1
##忧 1
##忪 1
##快 1
##忱 1
##念 1
##忻 1
##忽 1
##忿 1
##怀 1
##态 1
##怂 1
##怅 1
##怆 1
##怎 1
##怏 1
##怒 1
##怔 1
##怕 1
##怖 1
##怙 1
##怜 1
##思 1
##怠 1
##怡 1
##急 1
##怦 1
##性 1
##怨 1
##怪 1
##怯 1
##怵 1
##总 1
##怼 1
##恁 1
##恃 1
##恆 1
##恋 1
##恍 1
##恐 1
##恒 1
##恕 1
##恙 1
##恚 1
##恢 1
##恣 1
##恤 1
##恥 1
##恨 1
##恩 1
##恪 1
##恫 1
##恬 1
##恭 1
##息 1
##恰 1
##恳 1
##恵 1
##恶 1
##恸 1
##恺 1
##恻 1
##恼 1
##恿 1
##悄 1
##悅 1
##悉 1
##悌 1
##悍 1
##悔 1
##悖 1
##悚 1
##悟 1
##悠 1
##患 1
##悦 1
##您 1
##悩 1
##悪 1
##悬 1
##悯 1
##悱 1
##悲 1
##悴 1
##悵 1
##悶 1
##悸 1
##悻 1
##悼 1
##悽 1
##情 1
##惆 1
##惇 1
##惊 1
##惋 1
##惑 1
##惕 1
##惘 1
##惚 1
##惜 1
##惟 1
##惠 1
##惡 1
##惦 1
##惧 1
##惨 1
##惩 1
##惫 1
##惬 1
##惭 1
##惮 1
##惯 1
##惰 1
##惱 1
##想 1
##惴 1
##惶 1
##惹 1
##惺 1
##愁 1
##愆 1
##愈 1
##愉 1
##愍 1
##意 1
##愕 1
##愚 1
##愛 1
##愜 1
##感 1
##愣 1
##愤 1
##愧 1
##愫 1
##愷 1
##愿 1
##慄 1
##慈 1
##態 1
##慌 1
##慎 1
##慑 1
##慕 1
##慘 1
##慚 1
##慟 1
##慢 1
##慣 1
##慧 1
##慨 1
##慫 1
##慮 1
##慰 1
##慳 1
##慵 1
##慶 1
##慷 1
##慾 1
##憂 1
##憊 1
##憋 1
##憎 1
##憐 1
##憑 1
##憔 1
##憚 1
##憤 1
##憧 1
##憨 1
##憩 1
##憫 1
##憬 1
##憲 1
##憶 1
##憾 1
##懂 1
##懇 1
##懈 1
##應 1
##懊 1
##懋 1
##懑 1
##懒 1
##懦 1
##懲 1
##懵 1
##懶 1
##懷 1
##懸 1
##懺 1
##懼 1
##懾 1
##懿 1
##戀 1
##戈 1
##戊 1
##戌 1
##戍 1
##戎 1
##戏 1
##成 1
##我 1
##戒 1
##戕 1
##或 1
##战 1
##戚 1
##戛 1
##戟 1
##戡 1
##戦 1
##截 1
##戬 1
##戮 1
##戰 1
##戲 1
##戳 1
##戴 1
##戶 1
##户 1
##戸 1
##戻 1
##戾 1
##房 1
##所 1
##扁 1
##扇 1
##扈 1
##扉 1
##手 1
##才 1
##扎 1
##扑 1
##扒 1
##打 1
##扔 1
##払 1
##托 1
##扛 1
##扣 1
##扦 1
##执 1
##扩 1
##扪 1
##扫 1
##扬 1
##扭 1
##扮 1
##扯 1
##扰 1
##扱 1
##扳 1
##扶 1
##批 1
##扼 1
##找 1
##承 1
##技 1
##抄 1
##抉 1
##把 1
##抑 1
##抒 1
##抓 1
##投 1
##抖 1
##抗 1
##折 1
##抚 1
##抛 1
##抜 1
##択 1
##抟 1
##抠 1
##抡 1
##抢 1
##护 1
##报 1
##抨 1
##披 1
##抬 1
##抱 1
##抵 1
##抹 1
##押 1
##抽 1
##抿 1
##拂 1
##拄 1
##担 1
##拆 1
##拇 1
##拈 1
##拉 1
##拋 1
##拌 1
##拍 1
##拎 1
##拐 1
##拒 1
##拓 1
##拔 1
##拖 1
##拗 1
##拘 1
##拙 1
##拚 1
##招 1
##拜 1
##拟 1
##拡 1
##拢 1
##拣 1
##拥 1
##拦 1
##拧 1
##拨 1
##择 1
##括 1
##拭 1
##拮 1
##拯 1
##拱 1
##拳 1
##拴 1
##拷 1
##拼 1
##拽 1
##拾 1
##拿 1
##持 1
##挂 1
##指 1
##挈 1
##按 1
##挎 1
##挑 1
##挖 1
##挙 1
##挚 1
##挛 1
##挝 1
##挞 1
##挟 1
##挠 1
##挡 1
##挣 1
##挤 1
##挥 1
##挨 1
##挪 1
##挫 1
##振 1
##挲 1
##挹 1
##挺 1
##挽 1
##挾 1
##捂 1
##捅 1
##捆 1
##捉 1
##捋 1
##捌 1
##捍 1
##捎 1
##捏 1
##捐 1
##捕 1
##捞 1
##损 1
##捡 1
##换 1
##捣 1
##捧 1
##捨 1
##捩 1
##据 1
##捱 1
##捲 1
##捶 1
##捷 1
##捺 1
##捻 1
##掀 1
##掂 1
##掃 1
##掇 1
##授 1
##掉 1
##掌 1
##掏 1
##掐 1
##排 1
##掖 1
##掘 1
##掙 1
##掛 1
##掠 1
##採 1
##探 1
##掣 1
##接 1
##控 1
##推 1
##掩 1
##措 1
##掬 1
##掰 1
##掲 1
##掳 1
##掴 1
##掷 1
##掸 1
##掺 1
##揀 1
##揃 1
##揄 1
##揆 1
##揉 1
##揍 1
##描 1
##提 1
##插 1
##揖 1
##揚 1
##換 1
##握 1
##揣 1
##揩 1
##揪 1
##揭 1
##揮 1
##援 1
##揶 1
##揸 1
##揹 1
##揽 1
##搀 1
##搁 1
##搂 1
##搅 1
##損 1
##搏 1
##搐 1
##搓 1
##搔 1
##搖 1
##搗 1
##搜 1
##搞 1
##搡 1
##搪 1
##搬 1
##搭 1
##搵 1
##搶 1
##携 1
##搽 1
##摀 1
##摁 1
##摄 1
##摆 1
##摇 1
##摈 1
##摊 1
##摒 1
##摔 1
##摘 1
##摞 1
##摟 1
##摧 1
##摩 1
##摯 1
##摳 1
##摸 1
##摹 1
##摺 1
##摻 1
##撂 1
##撃 1
##撅 1
##撇 1
##撈 1
##撐 1
##撑 1
##撒 1
##撓 1
##撕 1
##撚 1
##撞 1
##撤 1
##撥 1
##撩 1
##撫 1
##撬 1
##播 1
##撮 1
##撰 1
##撲 1
##撵 1
##撷 1
##撸 1
##撻 1
##撼 1
##撿 1
##擀 1
##擁 1
##擂 1
##擄 1
##擅 1
##擇 1
##擊 1
##擋 1
##操 1
##擎 1
##擒 1
##擔 1
##擘 1
##據 1
##擞 1
##擠 1
##擡 1
##擢 1
##擦 1
##擬 1
##擰 1
##擱 1
##擲 1
##擴 1
##擷 1
##擺 1
##擼 1
##擾 1
##攀 1
##攏 1
##攒 1
##攔 1
##攘 1
##攙 1
##攜 1
##攝 1
##攞 1
##攢 1
##攣 1
##攤 1
##攥 1
##攪 1
##攫 1
##攬 1
##支 1
##收 1
##攸 1
##改 1
##攻 1
##放 1
##政 1
##故 1
##效 1
##敌 1
##敍 1
##敎 1
##敏 1
##救 1
##敕 1
##敖 1
##敗 1
##敘 1
##教 1
##敛 1
##敝 1
##敞 1
##敢 1
##散 1
##敦 1
##敬 1
##数 1
##敲 1
##整 1
##敵 1
##敷 1
##數 1
##斂 1
##斃 1
##文 1
##斋 1
##斌 1
##斎 1
##斐 1
##斑 1
##斓 1
##斗 1
##料 1
##斛 1
##斜 1
##斟 1
##斡 1
##斤 1
##斥 1
##斧 1
##斩 1
##斫 1
##斬 1
##断 1
##斯 1
##新 1
##斷 1
##方 1
##於 1
##施 1
##旁 1
##旃 1
##旅 1
##旋 1
##旌 1
##旎 1
##族 1
##旖 1
##旗 1
##无 1
##既 1
##日 1
##旦 1
##旧 1
##旨 1
##早 1
##旬 1
##旭 1
##旮 1
##旱 1
##时 1
##旷 1
##旺 1
##旻 1
##昀 1
##昂 1
##昆 1
##昇 1
##昉 1
##昊 1
##昌 1
##明 1
##昏 1
##易 1
##昔 1
##昕 1
##昙 1
##星 1
##映 1
##春 1
##昧 1
##昨 1
##昭 1
##是 1
##昱 1
##昴 1
##昵 1
##昶 1
##昼 1
##显 1
##晁 1
##時 1
##晃 1
##晉 1
##晋 1
##晌 1
##晏 1
##晒 1
##晓 1
##晔 1
##晕 1
##晖 1
##晗 1
##晚 1
##晝 1
##晞 1
##晟 1
##晤 1
##晦 1
##晨 1
##晩 1
##普 1
##景 1
##晰 1
##晴 1
##晶 1
##晷 1
##智 1
##晾 1
##暂 1
##暄 1
##暇 1
##暈 1
##暉 1
##暌 1
##暐 1
##暑 1
##暖 1
##暗 1
##暝 1
##暢 1
##暧 1
##暨 1
##暫 1
##暮 1
##暱 1
##暴 1
##暸 1
##暹 1
##曄 1
##曆 1
##曇 1
##曉 1
##曖 1
##曙 1
##曜 1
##曝 1
##曠 1
##曦 1
##曬 1
##曰 1
##曲 1
##曳 1
##更 1
##書 1
##曹 1
##曼 1
##曾 1
##替 1
##最 1
##會 1
##月 1
##有 1
##朋 1
##服 1
##朐 1
##朔 1
##朕 1
##朗 1
##望 1
##朝 1
##期 1
##朦 1
##朧 1
##木 1
##未 1
##末 1
##本 1
##札 1
##朮 1
##术 1
##朱 1
##朴 1
##朵 1
##机 1
##朽 1
##杀 1
##杂 1
##权 1
##杆 1
##杈 1
##杉 1
##李 1
##杏 1
##材 1
##村 1
##杓 1
##杖 1
##杜 1
##杞 1
##束 1
##杠 1
##条 1
##来 1
##杨 1
##杭 1
##杯 1
##杰 1
##東 1
##杳 1
##杵 1
##杷 1
##杼 1
##松 1
##板 1
##极 1
##构 1
##枇 1
##枉 1
##枋 1
##析 1
##枕 1
##林 1
##枚 1
##果 1
##枝 1
##枢 1
##枣 1
##枪 1
##枫 1
##枭 1
##枯 1
##枰 1
##枱 1
##枳 1
##架 1
##枷 1
##枸 1
##柄 1
##柏 1
##某 1
##柑 1
##柒 1
##染 1
##柔 1
##柘 1
##柚 1
##柜 1
##柞 1
##柠 1
##柢 1
##查 1
##柩 1
##柬 1
##柯 1
##柱 1
##柳 1
##柴 1
##柵 1
##査 1
##柿 1
##栀 1
##栃 1
##栄 1
##栅 1
##标 1
##栈 1
##栉 1
##栋 1
##栎 1
##栏 1
##树 1
##栓 1
##栖 1
##栗 1
##校 1
##栩 1
##株 1
##样 1
##核 1
##根 1
##格 1
##栽 1
##栾 1
##桀 1
##桁 1
##桂 1
##桃 1
##桅 1
##框 1
##案 1
##桉 1
##桌 1
##桎 1
##桐 1
##桑 1
##桓 1
##桔 1
##桜 1
##桠 1
##桡 1
##桢 1
##档 1
##桥 1
##桦 1
##桧 1
##桨 1
##桩 1
##桶 1
##桿 1
##梁 1
##梅 1
##梆 1
##梏 1
##梓 1
##梗 1
##條 1
##梟 1
##梢 1
##梦 1
##梧 1
##梨 1
##梭 1
##梯 1
##械 1
##梳 1
##梵 1
##梶 1
##检 1
##棂 1
##棄 1
##棉 1
##棋 1
##棍 1
##棒 1
##棕 1
##棗 1
##棘 1
##棚 1
##棟 1
##棠 1
##棣 1
##棧 1
##森 1
##棱 1
##棲 1
##棵 1
##棹 1
##棺 1
##椁 1
##椅 1
##椋 1
##植 1
##椎 1
##椒 1
##検 1
##椪 1
##椭 1
##椰 1
##椹 1
##椽 1
##椿 1
##楂 1
##楊 1
##楓 1
##楔 1
##楚 1
##楝 1
##楞 1
##楠 1
##楣 1
##楨 1
##楫 1
##業 1
##楮 1
##極 1
##楷 1
##楸 1
##楹 1
##楼 1
##楽 1
##概 1
##榄 1
##榆 1
##榈 1
##榉 1
##榔 1
##榕 1
##榖 1
##榛 1
##榜 1
##榨 1
##榫 1
##榭 1
##榮 1
##榱 1
##榴 1
##榷 1
##榻 1
##槁 1
##槃 1
##構 1
##槌 1
##槍 1
##槎 1
##槐 1
##槓 1
##様 1
##槛 1
##槟 1
##槤 1
##槭 1
##槲 1
##槳 1
##槻 1
##槽 1
##槿 1
##樁 1
##樂 1
##樊 1
##樑 1
##樓 1
##標 1
##樞 1
##樟 1
##模 1
##樣 1
##権 1
##横 1
##樫 1
##樯 1
##樱 1
##樵 1
##樸 1
##樹 1
##樺 1
##樽 1
##樾 1
##橄 1
##橇 1
##橋 1
##橐 1
##橘 1
##橙 1
##機 1
##橡 1
##橢 1
##橫 1
##橱 1
##橹 1
##橼 1
##檀 1
##檄 1
##檎 1
##檐 1
##檔 1
##檗 1
##檜 1
##檢 1
##檬 1
##檯 1
##檳 1
##檸 1
##檻 1
##櫃 1
##櫚 1
##櫛 1
##櫥 1
##櫸 1
##櫻 1
##欄 1
##權 1
##欒 1
##欖 1
##欠 1
##次 1
##欢 1
##欣 1
##欧 1
##欲 1
##欸 1
##欺 1
##欽 1
##款 1
##歆 1
##歇 1
##歉 1
##歌 1
##歎 1
##歐 1
##歓 1
##歙 1
##歛 1
##歡 1
##止 1
##正 1
##此 1
##步 1
##武 1
##歧 1
##歩 1
##歪 1
##歯 1
##歲 1
##歳 1
##歴 1
##歷 1
##歸 1
##歹 1
##死 1
##歼 1
##殁 1
##殃 1
##殆 1
##殇 1
##殉 1
##殊 1
##残 1
##殒 1
##殓 1
##殖 1
##殘 1
##殞 1
##殡 1
##殤 1
##殭 1
##殯 1
##殲 1
##殴 1
##段 1
##殷 1
##殺 1
##殼 1
##殿 1
##毀 1
##毁 1
##毂 1
##毅 1
##毆 1
##毋 1
##母 1
##毎 1
##每 1
##毒 1
##毓 1
##比 1
##毕 1
##毗 1
##毘 1
##毙 1
##毛 1
##毡 1
##毫 1
##毯 1
##毽 1
##氈 1
##氏 1
##氐 1
##民 1
##氓 1
##气 1
##氖 1
##気 1
##氙 1
##氛 1
##氟 1
##氡 1
##氢 1
##氣 1
##氤 1
##氦 1
##氧 1
##氨 1
##氪 1
##氫 1
##氮 1
##氯 1
##氰 1
##氲 1
##水 1
##氷 1
##永 1
##氹 1
##氾 1
##汀 1
##汁 1
##求 1
##汆 1
##汇 1
##汉 1
##汎 1
##汐 1
##汕 1
##汗 1
##汙 1
##汛 1
##汝 1
##汞 1
##江 1
##池 1
##污 1
##汤 1
##汨 1
##汩 1
##汪 1
##汰 1
##汲 1
##汴 1
##汶 1
##汹 1
##決 1
##汽 1
##汾 1
##沁 1
##沂 1
##沃 1
##沅 1
##沈 1
##沉 1
##沌 1
##沏 1
##沐 1
##沒 1
##沓 1
##沖 1
##沙 1
##沛 1
##沟 1
##没 1
##沢 1
##沣 1
##沥 1
##沦 1
##沧 1
##沪 1
##沫 1
##沭 1
##沮 1
##沱 1
##河 1
##沸 1
##油 1
##治 1
##沼 1
##沽 1
##沾 1
##沿 1
##況 1
##泄 1
##泉 1
##泊 1
##泌 1
##泓 1
##法 1
##泗 1
##泛 1
##泞 1
##泠 1
##泡 1
##波 1
##泣 1
##泥 1
##注 1
##泪 1
##泫 1
##泮 1
##泯 1
##泰 1
##泱 1
##泳 1
##泵 1
##泷 1
##泸 1
##泻 1
##泼 1
##泽 1
##泾 1
##洁 1
##洄 1
##洋 1
##洒 1
##洗 1
##洙 1
##洛 1
##洞 1
##津 1
##洩 1
##洪 1
##洮 1
##洱 1
##洲 1
##洵 1
##洶 1
##洸 1
##洹 1
##活 1
##洼 1
##洽 1
##派 1
##流 1
##浃 1
##浄 1
##浅 1
##浆 1
##浇 1
##浊 1
##测 1
##济 1
##浏 1
##浑 1
##浒 1
##浓 1
##浔 1
##浙 1
##浚 1
##浜 1
##浣 1
##浦 1
##浩 1
##浪 1
##浬 1
##浮 1
##浯 1
##浴 1
##海 1
##浸 1
##涂 1
##涅 1
##涇 1
##消 1
##涉 1
##涌 1
##涎 1
##涓 1
##涔 1
##涕 1
##涙 1
##涛 1
##涝 1
##涞 1
##涟 1
##涠 1
##涡 1
##涣 1
##涤 1
##润 1
##涧 1
##涨 1
##涩 1
##涪 1
##涮 1
##涯 1
##液 1
##涵 1
##涸 1
##涼 1
##涿 1
##淀 1
##淄 1
##淅 1
##淆 1
##淇 1
##淋 1
##淌 1
##淑 1
##淒 1
##淖 1
##淘 1
##淙 1
##淚 1
##淞 1
##淡 1
##淤 1
##淦 1
##淨 1
##淩 1
##淪 1
##淫 1
##淬 1
##淮 1
##深 1
##淳 1
##淵 1
##混 1
##淹 1
##淺 1
##添 1
##淼 1
##清 1
##済 1
##渉 1
##渊 1
##渋 1
##渍 1
##渎 1
##渐 1
##渔 1
##渗 1
##渙 1
##渚 1
##減 1
##渝 1
##渠 1
##渡 1
##渣 1
##渤 1
##渥 1
##渦 1
##温 1
##測 1
##渭 1
##港 1
##渲 1
##渴 1
##游 1
##渺 1
##渾 1
##湃 1
##湄 1
##湊 1
##湍 1
##湖 1
##湘 1
##湛 1
##湟 1
##湧 1
##湫 1
##湮 1
##湯 1
##湳 1
##湾 1
##湿 1
##満 1
##溃 1
##溅 1
##溉 1
##溏 1
##源 1
##準 1
##溜 1
##溝 1
##溟 1
##溢 1
##溥 1
##溧 1
##溪 1
##溫 1
##溯 1
##溱 1
##溴 1
##溶 1
##溺 1
##溼 1
##滁 1
##滂 1
##滄 1
##滅 1
##滇 1
##滋 1
##滌 1
##滑 1
##滓 1
##滔 1
##滕 1
##滙 1
##滚 1
##滝 1
##滞 1
##滟 1
##满 1
##滢 1
##滤 1
##滥 1
##滦 1
##滨 1
##滩 1
##滬 1
##滯 1
##滲 1
##滴 1
##滷 1
##滸 1
##滾 1
##滿 1
##漁 1
##漂 1
##漆 1
##漉 1
##漏 1
##漓 1
##演 1
##漕 1
##漠 1
##漢 1
##漣 1
##漩 1
##漪 1
##漫 1
##漬 1
##漯 1
##漱 1
##漲 1
##漳 1
##漸 1
##漾 1
##漿 1
##潆 1
##潇 1
##潋 1
##潍 1
##潑 1
##潔 1
##潘 1
##潛 1
##潜 1
##潞 1
##潟 1
##潢 1
##潤 1
##潦 1
##潧 1
##潭 1
##潮 1
##潰 1
##潴 1
##潸 1
##潺 1
##潼 1
##澀 1
##澄 1
##澆 1
##澈 1
##澍 1
##澎 1
##澗 1
##澜 1
##澡 1
##澤 1
##澧 1
##澱 1
##澳 1
##澹 1
##激 1
##濁 1
##濂 1
##濃 1
##濑 1
##濒 1
##濕 1
##濘 1
##濛 1
##濟 1
##濠 1
##濡 1
##濤 1
##濫 1
##濬 1
##濮 1
##濯 1
##濱 1
##濺 1
##濾 1
##瀅 1
##瀆 1
##瀉 1
##瀋 1
##瀏 1
##瀑 1
##瀕 1
##瀘 1
##瀚 1
##瀛 1
##瀝 1
##瀞 1
##瀟 1
##瀧 1
##瀨 1
##瀬 1
##瀰 1
##瀾 1
##灌 1
##灏 1
##灑 1
##灘 1
##灝 1
##灞 1
##灣 1
##火 1
##灬 1
##灭 1
##灯 1
##灰 1
##灵 1
##灶 1
##灸 1
##灼 1
##災 1
##灾 1
##灿 1
##炀 1
##炁 1
##炅 1
##炉 1
##炊 1
##炎 1
##炒 1
##炔 1
##炕 1
##炖 1
##炙 1
##炜 1
##炫 1
##炬 1
##炭 1
##炮 1
##炯 1
##炳 1
##炷 1
##炸 1
##点 1
##為 1
##炼 1
##炽 1
##烁 1
##烂 1
##烃 1
##烈 1
##烊 1
##烏 1
##烘 1
##烙 1
##烛 1
##烟 1
##烤 1
##烦 1
##烧 1
##烨 1
##烩 1
##烫 1
##烬 1
##热 1
##烯 1
##烷 1
##烹 1
##烽 1
##焉 1
##焊 1
##焕 1
##焖 1
##焗 1
##焘 1
##焙 1
##焚 1
##焜 1
##無 1
##焦 1
##焯 1
##焰 1
##焱 1
##然 1
##焼 1
##煅 1
##煉 1
##煊 1
##煌 1
##煎 1
##煒 1
##煖 1
##煙 1
##煜 1
##煞 1
##煤 1
##煥 1
##煦 1
##照 1
##煨 1
##煩 1
##煮 1
##煲 1
##煸 1
##煽 1
##熄 1
##熊 1
##熏 1
##熒 1
##熔 1
##熙 1
##熟 1
##熠 1
##熨 1
##熬 1
##熱 1
##熵 1
##熹 1
##熾 1
##燁 1
##燃 1
##燄 1
##燈 1
##燉 1
##燊 1
##燎 1
##燒 1
##燔 1
##燕 1
##燙 1
##燜 1
##營 1
##燥 1
##燦 1
##燧 1
##燭 1
##燮 1
##燴 1
##燻 1
##燼 1
##燿 1
##爆 1
##爍 1
##爐 1
##爛 1
##爪 1
##爬 1
##爭 1
##爰 1
##爱 1
##爲 1
##爵 1
##父 1
##爷 1
##爸 1
##爹 1
##爺 1
##爻 1
##爽 1
##爾 1
##牆 1
##片 1
##版 1
##牌 1
##牍 1
##牒 1
##牙 1
##牛 1
##牝 1
##牟 1
##牠 1
##牡 1
##牢 1
##牦 1
##牧 1
##物 1
##牯 1
##牲 1
##牴 1
##牵 1
##特 1
##牺 1
##牽 1
##犀 1
##犁 1
##犄 1
##犊 1
##犍 1
##犒 1
##犢 1
##犧 1
##犬 1
##犯 1
##状 1
##犷 1
##犸 1
##犹 1
##狀 1
##狂 1
##狄 1
##狈 1
##狎 1
##狐 1
##狒 1
##狗 1
##狙 1
##狞 1
##狠 1
##狡 1
##狩 1
##独 1
##狭 1
##狮 1
##狰 1
##狱 1
##狸 1
##狹 1
##狼 1
##狽 1
##猎 1
##猕 1
##猖 1
##猗 1
##猙 1
##猛 1
##猜 1
##猝 1
##猥 1
##猩 1
##猪 1
##猫 1
##猬 1
##献 1
##猴 1
##猶 1
##猷 1
##猾 1
##猿 1
##獄 1
##獅 1
##獎 1
##獐 1
##獒 1
##獗 1
##獠 1
##獣 1
##獨 1
##獭 1
##獰 1
##獲 1
##獵 1
##獷 1
##獸 1
##獺 1
##獻 1
##獼 1
##獾 1
##玄 1
##率 1
##玉 1
##王 1
##玑 1
##玖 1
##玛 1
##玟 1
##玠 1
##玥 1
##玩 1
##玫 1
##玮 1
##环 1
##现 1
##玲 1
##玳 1
##玷 1
##玺 1
##玻 1
##珀 1
##珂 1
##珅 1
##珈 1
##珉 1
##珊 1
##珍 1
##珏 1
##珐 1
##珑 1
##珙 1
##珞 1
##珠 1
##珣 1
##珥 1
##珩 1
##珪 1
##班 1
##珮 1
##珲 1
##珺 1
##現 1
##球 1
##琅 1
##理 1
##琇 1
##琉 1
##琊 1
##琍 1
##琏 1
##琐 1
##琛 1
##琢 1
##琥 1
##琦 1
##琨 1
##琪 1
##琬 1
##琮 1
##琰 1
##琲 1
##琳 1
##琴 1
##琵 1
##琶 1
##琺 1
##琼 1
##瑀 1
##瑁 1
##瑄 1
##瑋 1
##瑕 1
##瑗 1
##瑙 1
##瑚 1
##瑛 1
##瑜 1
##瑞 1
##瑟 1
##瑠 1
##瑣 1
##瑤 1
##瑩 1
##瑪 1
##瑯 1
##瑰 1
##瑶 1
##瑾 1
##璀 1
##璁 1
##璃 1
##璇 1
##璉 1
##璋 1
##璎 1
##璐 1
##璜 1
##璞 1
##璟 1
##璧 1
##璨 1
##環 1
##璽 1
##璿 1
##瓊 1
##瓏 1
##瓒 1
##瓜 1
##瓢 1
##瓣 1
##瓤 1
##瓦 1
##瓮 1
##瓯 1
##瓴 1
##瓶 1
##瓷 1
##甄 1
##甌 1
##甕 1
##甘 1
##甙 1
##甚 1
##甜 1
##生 1
##產 1
##産 1
##甥 1
##甦 1
##用 1
##甩 1
##甫 1
##甬 1
##甭 1
##甯 1
##田 1
##由 1
##甲 1
##申 1
##电 1
##男 1
##甸 1
##町 1
##画 1
##甾 1
##畀 1
##畅 1
##界 1
##畏 1
##畑 1
##畔 1
##留 1
##畜 1
##畝 1
##畢 1
##略 1
##畦 1
##番 1
##畫 1
##異 1
##畲 1
##畳 1
##畴 1
##當 1
##畸 1
##畹 1
##畿 1
##疆 1
##疇 1
##疊 1
##疏 1
##疑 1
##疔 1
##疖 1
##疗 1
##疙 1
##疚 1
##疝 1
##疟 1
##疡 1
##疣 1
##疤 1
##疥 1
##疫 1
##疮 1
##疯 1
##疱 1
##疲 1
##疳 1
##疵 1
##疸 1
##疹 1
##疼 1
##疽 1
##疾 1
##痂 1
##病 1
##症 1
##痈 1
##痉 1
##痊 1
##痍 1
##痒 1
##痔 1
##痕 1
##痘 1
##痙 1
##痛 1
##痞 1
##痠 1
##痢 1
##痣 1
##痤 1
##痧 1
##痨 1
##痪 1
##痫 1
##痰 1
##痱 1
##痴 1
##痹 1
##痺 1
##痼 1
##痿 1
##瘀 1
##瘁 1
##瘋 1
##瘍 1
##瘓 1
##瘘 1
##瘙 1
##瘟 1
##瘠 1
##瘡 1
##瘢 1
##瘤 1
##瘦 1
##瘧 1
##瘩 1
##瘪 1
##瘫 1
##瘴 1
##瘸 1
##瘾 1
##療 1
##癇 1
##癌 1
##癒 1
##癖 1
##癜 1
##癞 1
##癡 1
##癢 1
##癣 1
##癥 1
##癫 1
##癬 1
##癮 1
##癱 1
##癲 1
##癸 1
##発 1
##登 1
##發 1
##白 1
##百 1
##皂 1
##的 1
##皆 1
##皇 1
##皈 1
##皋 1
##皎 1
##皑 1
##皓 1
##皖 1
##皙 1
##皚 1
##皮 1
##皰 1
##皱 1
##皴 1
##皺 1
##皿 1
##盂 1
##盃 1
##盅 1
##盆 1
##盈 1
##益 1
##盎 1
##盏 1
##盐 1
##监 1
##盒 1
##盔 1
##盖 1
##盗 1
##盘 1
##盛 1
##盜 1
##盞 1
##盟 1
##盡 1
##監 1
##盤 1
##盥 1
##盧 1
##盪 1
##目 1
##盯 1
##盱 1
##盲 1
##直 1
##相 1
##盹 1
##盼 1
##盾 1
##省 1
##眈 1
##眉 1
##看 1
##県 1
##眙 1
##眞 1
##真 1
##眠 1
##眦 1
##眨 1
##眩 1
##眯 1
##眶 1
##眷 1
##眸 1
##眺 1
##眼 1
##眾 1
##着 1
##睁 1
##睇 1
##睏 1
##睐 1
##睑 1
##睛 1
##睜 1
##睞 1
##睡 1
##睢 1
##督 1
##睥 1
##睦 1
##睨 1
##睪 1
##睫 1
##睬 1
##睹 1
##睽 1
##睾 1
##睿 1
##瞄 1
##瞅 1
##瞇 1
##瞋 1
##瞌 1
##瞎 1
##瞑 1
##瞒 1
##瞓 1
##瞞 1
##瞟 1
##瞠 1
##瞥 1
##瞧 1
##瞩 1
##瞪 1
##瞬 1
##瞭 1
##瞰 1
##瞳 1
##瞻 1
##瞼 1
##瞿 1
##矇 1
##矍 1
##矗 1
##矚 1
##矛 1
##矜 1
##矢 1
##矣 1
##知 1
##矩 1
##矫 1
##短 1
##矮 1
##矯 1
##石 1
##矶 1
##矽 1
##矾 1
##矿 1
##码 1
##砂 1
##砌 1
##砍 1
##砒 1
##研 1
##砖 1
##砗 1
##砚 1
##砝 1
##砣 1
##砥 1
##砧 1
##砭 1
##砰 1
##砲 1
##破 1
##砷 1
##砸 1
##砺 1
##砼 1
##砾 1
##础 1
##硅 1
##硐 1
##硒 1
##硕 1
##硝 1
##硫 1
##硬 1
##确 1
##硯 1
##硼 1
##碁 1
##碇 1
##碉 1
##碌 1
##碍 1
##碎 1
##碑 1
##碓 1
##碗 1
##碘 1
##碚 1
##碛 1
##碟 1
##碣 1
##碧 1
##碩 1
##碰 1
##碱 1
##碳 1
##碴 1
##確 1
##碼 1
##碾 1
##磁 1
##磅 1
##磊 1
##磋 1
##磐 1
##磕 1
##磚 1
##磡 1
##磨 1
##磬 1
##磯 1
##磲 1
##磷 1
##磺 1
##礁 1
##礎 1
##礙 1
##礡 1
##礦 1
##礪 1
##礫 1
##礴 1
##示 1
##礼 1
##社 1
##祀 1
##祁 1
##祂 1
##祇 1
##祈 1
##祉 1
##祎 1
##祐 1
##祕 1
##祖 1
##祗 1
##祚 1
##祛 1
##祜 1
##祝 1
##神 1
##祟 1
##祠 1
##祢 1
##祥 1
##票 1
##祭 1
##祯 1
##祷 1
##祸 1
##祺 1
##祿 1
##禀 1
##禁 1
##禄 1
##禅 1
##禍 1
##禎 1
##福 1
##禛 1
##禦 1
##禧 1
##禪 1
##禮 1
##禱 1
##禹 1
##禺 1
##离 1
##禽 1
##禾 1
##禿 1
##秀 1
##私 1
##秃 1
##秆 1
##秉 1
##秋 1
##种 1
##科 1
##秒 1
##秘 1
##租 1
##秣 1
##秤 1
##秦 1
##秧 1
##秩 1
##秭 1
##积 1
##称 1
##秸 1
##移 1
##秽 1
##稀 1
##稅 1
##程 1
##稍 1
##税 1
##稔 1
##稗 1
##稚 1
##稜 1
##稞 1
##稟 1
##稠 1
##稣 1
##種 1
##稱 1
##稲 1
##稳 1
##稷 1
##稹 1
##稻 1
##稼 1
##稽 1
##稿 1
##穀 1
##穂 1
##穆 1
##穌 1
##積 1
##穎 1
##穗 1
##穢 1
##穩 1
##穫 1
##穴 1
##究 1
##穷 1
##穹 1
##空 1
##穿 1
##突 1
##窃 1
##窄 1
##窈 1
##窍 1
##窑 1
##窒 1
##窓 1
##窕 1
##窖 1
##窗 1
##窘 1
##窜 1
##窝 1
##窟 1
##窠 1
##窥 1
##窦 1
##窨 1
##窩 1
##窪 1
##窮 1
##窯 1
##窺 1
##窿 1
##竄 1
##竅 1
##竇 1
##竊 1
##立 1
##竖 1
##站 1
##竜 1
##竞 1
##竟 1
##章 1
##竣 1
##童 1
##竭 1
##端 1
##競 1
##竹 1
##竺 1
##竽 1
##竿 1
##笃 1
##笆 1
##笈 1
##笋 1
##笏 1
##笑 1
##笔 1
##笙 1
##笛 1
##笞 1
##笠 1
##符 1
##笨 1
##第 1
##笹 1
##笺 1
##笼 1
##筆 1
##等 1
##筊 1
##筋 1
##筍 1
##筏 1
##筐 1
##筑 1
##筒 1
##答 1
##策 1
##筛 1
##筝 1
##筠 1
##筱 1
##筲 1
##筵 1
##筷 1
##筹 1
##签 1
##简 1
##箇 1
##箋 1
##箍 1
##箏 1
##箐 1
##箔 1
##箕 1
##算 1
##箝 1
##管 1
##箩 1
##箫 1
##箭 1
##箱 1
##箴 1
##箸 1
##節 1
##篁 1
##範 1
##篆 1
##篇 1
##築 1
##篑 1
##篓 1
##篙 1
##篝 1
##篠 1
##篡 1
##篤 1
##篩 1
##篪 1
##篮 1
##篱 1
##篷 1
##簇 1
##簌 1
##簍 1
##簡 1
##簦 1
##簧 1
##簪 1
##簫 1
##簷 1
##簸 1
##簽 1
##簾 1
##簿 1
##籁 1
##籃 1
##籌 1
##籍 1
##籐 1
##籟 1
##籠 1
##籤 1
##籬 1
##籮 1
##籲 1
##米 1
##类 1
##籼 1
##籽 1
##粄 1
##粉 1
##粑 1
##粒 1
##粕 1
##粗 1
##粘 1
##粟 1
##粤 1
##粥 1
##粧 1
##粪 1
##粮 1
##粱 1
##粲 1
##粳 1
##粵 1
##粹 1
##粼 1
##粽 1
##精 1
##粿 1
##糅 1
##糊 1
##糍 1
##糕 1
##糖 1
##糗 1
##糙 1
##糜 1
##糞 1
##糟 1
##糠 1
##糧 1
##糬 1
##糯 1
##糰 1
##糸 1
##系 1
##糾 1
##紀 1
##紂 1
##約 1
##紅 1
##紉 1
##紊 1
##紋 1
##納 1
##紐 1
##紓 1
##純 1
##紗 1
##紘 1
##紙 1
##級 1
##紛 1
##紜 1
##素 1
##紡 1
##索 1
##紧 1
##紫 1
##紮 1
##累 1
##細 1
##紳 1
##紹 1
##紺 1
##終 1
##絃 1
##組 1
##絆 1
##経 1
##結 1
##絕 1
##絞 1
##絡 1
##絢 1
##給 1
##絨 1
##絮 1
##統 1
##絲 1
##絳 1
##絵 1
##絶 1
##絹 1
##綁 1
##綏 1
##綑 1
##經 1
##継 1
##続 1
##綜 1
##綠 1
##綢 1
##綦 1
##綫 1
##綬 1
##維 1
##綱 1
##網 1
##綴 1
##綵 1
##綸 1
##綺 1
##綻 1
##綽 1
##綾 1
##綿 1
##緊 1
##緋 1
##総 1
##緑 1
##緒 1
##緘 1
##線 1
##緝 1
##緞 1
##締 1
##緣 1
##編 1
##緩 1
##緬 1
##緯 1
##練 1
##緹 1
##緻 1
##縁 1
##縄 1
##縈 1
##縛 1
##縝 1
##縣 1
##縫 1
##縮 1
##縱 1
##縴 1
##縷 1
##總 1
##績 1
##繁 1
##繃 1
##繆 1
##繇 1
##繋 1
##織 1
##繕 1
##繚 1
##繞 1
##繡 1
##繩 1
##繪 1
##繫 1
##繭 1
##繳 1
##繹 1
##繼 1
##繽 1
##纂 1
##續 1
##纍 1
##纏 1
##纓 1
##纔 1
##纖 1
##纜 1
##纠 1
##红 1
##纣 1
##纤 1
##约 1
##级 1
##纨 1
##纪 1
##纫 1
##纬 1
##纭 1
##纯 1
##纰 1
##纱 1
##纲 1
##纳 1
##纵 1
##纶 1
##纷 1
##纸 1
##纹 1
##纺 1
##纽 1
##纾 1
##线 1
##绀 1
##练 1
##组 1
##绅 1
##细 1
##织 1
##终 1
##绊 1
##绍 1
##绎 1
##经 1
##绑 1
##绒 1
##结 1
##绔 1
##绕 1
##绘 1
##给 1
##绚 1
##绛 1
##络 1
##绝 1
##绞 1
##统 1
##绡 1
##绢 1
##绣 1
##绥 1
##绦 1
##继 1
##绩 1
##绪 1
##绫 1
##续 1
##绮 1
##绯 1
##绰 1
##绳 1
##维 1
##绵 1
##绶 1
##绷 1
##绸 1
##绻 1
##综 1
##绽 1
##绾 1
##绿 1
##缀 1
##缄 1
##缅 1
##缆 1
##缇 1
##缈 1
##缉 1
##缎 1
##缓 1
##缔 1
##缕 1
##编 1
##缘 1
##缙 1
##缚 1
##缜 1
##缝 1
##缠 1
##缢 1
##缤 1
##缥 1
##缨 1
##缩 1
##缪 1
##缭 1
##缮 1
##缰 1
##缱 1
##缴 1
##缸 1
##缺 1
##缽 1
##罂 1
##罄 1
##罌 1
##罐 1
##网 1
##罔 1
##罕 1
##罗 1
##罚 1
##罡 1
##罢 1
##罩 1
##罪 1
##置 1
##罰 1
##署 1
##罵 1
##罷 1
##罹 1
##羁 1
##羅 1
##羈 1
##羊 1
##羌 1
##美 1
##羔 1
##羚 1
##羞 1
##羟 1
##羡 1
##羣 1
##群 1
##羥 1
##羧 1
##羨 1
##義 1
##羯 1
##羲 1
##羸 1
##羹 1
##羽 1
##羿 1
##翁 1
##翅 1
##翊 1
##翌 1
##翎 1
##習 1
##翔 1
##翘 1
##翟 1
##翠 1
##翡 1
##翦 1
##翩 1
##翰 1
##翱 1
##翳 1
##翹 1
##翻 1
##翼 1
##耀 1
##老 1
##考 1
##耄 1
##者 1
##耆 1
##耋 1
##而 1
##耍 1
##耐 1
##耒 1
##耕 1
##耗 1
##耘 1
##耙 1
##耦 1
##耨 1
##耳 1
##耶 1
##耷 1
##耸 1
##耻 1
##耽 1
##耿 1
##聂 1
##聆 1
##聊 1
##聋 1
##职 1
##聒 1
##联 1
##聖 1
##聘 1
##聚 1
##聞 1
##聪 1
##聯 1
##聰 1
##聲 1
##聳 1
##聴 1
##聶 1
##職 1
##聽 1
##聾 1
##聿 1
##肃 1
##肄 1
##肅 1
##肆 1
##肇 1
##肉 1
##肋 1
##肌 1
##肏 1
##肓 1
##肖 1
##肘 1
##肚 1
##肛 1
##肝 1
##肠 1
##股 1
##肢 1
##肤 1
##肥 1
##肩 1
##肪 1
##肮 1
##肯 1
##肱 1
##育 1
##肴 1
##肺 1
##肽 1
##肾 1
##肿 1
##胀 1
##胁 1
##胃 1
##胄 1
##胆 1
##背 1
##胍 1
##胎 1
##胖 1
##胚 1
##胛 1
##胜 1
##胝 1
##胞 1
##胡 1
##胤 1
##胥 1
##胧 1
##胫 1
##胭 1
##胯 1
##胰 1
##胱 1
##胳 1
##胴 1
##胶 1
##胸 1
##胺 1
##能 1
##脂 1
##脅 1
##脆 1
##脇 1
##脈 1
##脉 1
##脊 1
##脍 1
##脏 1
##脐 1
##脑 1
##脓 1
##脖 1
##脘 1
##脚 1
##脛 1
##脣 1
##脩 1
##脫 1
##脯 1
##脱 1
##脲 1
##脳 1
##脸 1
##脹 1
##脾 1
##腆 1
##腈 1
##腊 1
##腋 1
##腌 1
##腎 1
##腐 1
##腑 1
##腓 1
##腔 1
##腕 1
##腥 1
##腦 1
##腩 1
##腫 1
##腭 1
##腮 1
##腰 1
##腱 1
##腳 1
##腴 1
##腸 1
##腹 1
##腺 1
##腻 1
##腼 1
##腾 1
##腿 1
##膀 1
##膈 1
##膊 1
##膏 1
##膑 1
##膘 1
##膚 1
##膛 1
##膜 1
##膝 1
##膠 1
##膦 1
##膨 1
##膩 1
##膳 1
##膺 1
##膻 1
##膽 1
##膾 1
##膿 1
##臀 1
##臂 1
##臃 1
##臆 1
##臉 1
##臊 1
##臍 1
##臓 1
##臘 1
##臟 1
##臣 1
##臥 1
##臧 1
##臨 1
##自 1
##臬 1
##臭 1
##至 1
##致 1
##臺 1
##臻 1
##臼 1
##臾 1
##舀 1
##舂 1
##舅 1
##舆 1
##與 1
##興 1
##舉 1
##舊 1
##舌 1
##舍 1
##舎 1
##舐 1
##舒 1
##舔 1
##舖 1
##舗 1
##舛 1
##舜 1
##舞 1
##舟 1
##航 1
##舫 1
##般 1
##舰 1
##舱 1
##舵 1
##舶 1
##舷 1
##舸 1
##船 1
##舺 1
##舾 1
##艇 1
##艋 1
##艘 1
##艙 1
##艦 1
##艮 1
##良 1
##艰 1
##艱 1
##色 1
##艳 1
##艷 1
##艹 1
##艺 1
##艾 1
##节 1
##芃 1
##芈 1
##芊 1
##芋 1
##芍 1
##芎 1
##芒 1
##芙 1
##芜 1
##芝 1
##芡 1
##芥 1
##芦 1
##芩 1
##芪 1
##芫 1
##芬 1
##芭 1
##芮 1
##芯 1
##花 1
##芳 1
##芷 1
##芸 1
##芹 1
##芻 1
##芽 1
##芾 1
##苁 1
##苄 1
##苇 1
##苋 1
##苍 1
##苏 1
##苑 1
##苒 1
##苓 1
##苔 1
##苕 1
##苗 1
##苛 1
##苜 1
##苞 1
##苟 1
##苡 1
##苣 1
##若 1
##苦 1
##苫 1
##苯 1
##英 1
##苷 1
##苹 1
##苻 1
##茁 1
##茂 1
##范 1
##茄 1
##茅 1
##茉 1
##茎 1
##茏 1
##茗 1
##茜 1
##茧 1
##茨 1
##茫 1
##茬 1
##茭 1
##茯 1
##茱 1
##茲 1
##茴 1
##茵 1
##茶 1
##茸 1
##茹 1
##茼 1
##荀 1
##荃 1
##荆 1
##草 1
##荊 1
##荏 1
##荐 1
##荒 1
##荔 1
##荖 1
##荘 1
##荚 1
##荞 1
##荟 1
##荠 1
##荡 1
##荣 1
##荤 1
##荥 1
##荧 1
##荨 1
##荪 1
##荫 1
##药 1
##荳 1
##荷 1
##荸 1
##荻 1
##荼 1
##荽 1
##莅 1
##莆 1
##莉 1
##莊 1
##莎 1
##莒 1
##莓 1
##莖 1
##莘 1
##莞 1
##莠 1
##莢 1
##莧 1
##莪 1
##莫 1
##莱 1
##莲 1
##莴 1
##获 1
##莹 1
##莺 1
##莽 1
##莿 1
##菀 1
##菁 1
##菅 1
##菇 1
##菈 1
##菊 1
##菌 1
##菏 1
##菓 1
##菖 1
##菘 1
##菜 1
##菟 1
##菠 1
##菡 1
##菩 1
##華 1
##菱 1
##菲 1
##菸 1
##菽 1
##萁 1
##萃 1
##萄 1
##萊 1
##萋 1
##萌 1
##萍 1
##萎 1
##萘 1
##萝 1
##萤 1
##营 1
##萦 1
##萧 1
##萨 1
##萩 1
##萬 1
##萱 1
##萵 1
##萸 1
##萼 1
##落 1
##葆 1
##葉 1
##著 1
##葚 1
##葛 1
##葡 1
##董 1
##葦 1
##葩 1
##葫 1
##葬 1
##葭 1
##葯 1
##葱 1
##葳 1
##葵 1
##葷 1
##葺 1
##蒂 1
##蒋 1
##蒐 1
##蒔 1
##蒙 1
##蒜 1
##蒞 1
##蒟 1
##蒡 1
##蒨 1
##蒲 1
##蒸 1
##蒹 1
##蒻 1
##蒼 1
##蒿 1
##蓁 1
##蓄 1
##蓆 1
##蓉 1
##蓋 1
##蓑 1
##蓓 1
##蓖 1
##蓝 1
##蓟 1
##蓦 1
##蓬 1
##蓮 1
##蓼 1
##蓿 1
##蔑 1
##蔓 1
##蔔 1
##蔗 1
##蔘 1
##蔚 1
##蔡 1
##蔣 1
##蔥 1
##蔫 1
##蔬 1
##蔭 1
##蔵 1
##蔷 1
##蔺 1
##蔻 1
##蔼 1
##蔽 1
##蕁 1
##蕃 1
##蕈 1
##蕉 1
##蕊 1
##蕎 1
##蕙 1
##蕤 1
##蕨 1
##蕩 1
##蕪 1
##蕭 1
##蕲 1
##蕴 1
##蕻 1
##蕾 1
##薄 1
##薅 1
##薇 1
##薈 1
##薊 1
##薏 1
##薑 1
##薔 1
##薙 1
##薛 1
##薦 1
##薨 1
##薩 1
##薪 1
##薬 1
##薯 1
##薰 1
##薹 1
##藉 1
##藍 1
##藏 1
##藐 1
##藓 1
##藕 1
##藜 1
##藝 1
##藤 1
##藥 1
##藩 1
##藹 1
##藻 1
##藿 1
##蘆 1
##蘇 1
##蘊 1
##蘋 1
##蘑 1
##蘚 1
##蘭 1
##蘸 1
##蘼 1
##蘿 1
##虎 1
##虏 1
##虐 1
##虑 1
##虔 1
##處 1
##虚 1
##虛 1
##虜 1
##虞 1
##號 1
##虢 1
##虧 1
##虫 1
##虬 1
##虱 1
##虹 1
##虻 1
##虽 1
##虾 1
##蚀 1
##蚁 1
##蚂 1
##蚊 1
##蚌 1
##蚓 1
##蚕 1
##蚜 1
##蚝 1
##蚣 1
##蚤 1
##蚩 1
##蚪 1
##蚯 1
##蚱 1
##蚵 1
##蛀 1
##蛆 1
##蛇 1
##蛊 1
##蛋 1
##蛎 1
##蛐 1
##蛔 1
##蛙 1
##蛛 1
##蛟 1
##蛤 1
##蛭 1
##蛮 1
##蛰 1
##蛳 1
##蛹 1
##蛻 1
##蛾 1
##蜀 1
##蜂 1
##蜃 1
##蜆 1
##蜇 1
##蜈 1
##蜊 1
##蜍 1
##蜒 1
##蜓 1
##蜕 1
##蜗 1
##蜘 1
##蜚 1
##蜜 1
##蜡 1
##蜢 1
##蜥 1
##蜱 1
##蜴 1
##蜷 1
##蜻 1
##蜿 1
##蝇 1
##蝈 1
##蝉 1
##蝌 1
##蝎 1
##蝕 1
##蝗 1
##蝙 1
##蝟 1
##蝠 1
##蝦 1
##蝨 1
##蝴 1
##蝶 1
##蝸 1
##蝼 1
##螂 1
##螃 1
##融 1
##螞 1
##螢 1
##螨 1
##螯 1
##螳 1
##螺 1
##蟀 1
##蟄 1
##蟆 1
##蟋 1
##蟎 1
##蟑 1
##蟒 1
##蟠 1
##蟬 1
##蟲 1
##蟹 1
##蟻 1
##蟾 1
##蠅 1
##蠍 1
##蠔 1
##蠕 1
##蠛 1
##蠟 1
##蠡 1
##蠢 1
##蠣 1
##蠱 1
##蠶 1
##蠹 1
##蠻 1
##血 1
##衄 1
##衅 1
##衆 1
##行 1
##衍 1
##術 1
##衔 1
##街 1
##衙 1
##衛 1
##衝 1
##衞 1
##衡 1
##衢 1
##衣 1
##补 1
##表 1
##衩 1
##衫 1
##衬 1
##衮 1
##衰 1
##衲 1
##衷 1
##衹 1
##衾 1
##衿 1
##袁 1
##袂 1
##袄 1
##袅 1
##袈 1
##袋 1
##袍 1
##袒 1
##袖 1
##袜 1
##袞 1
##袤 1
##袪 1
##被 1
##袭 1
##袱 1
##裁 1
##裂 1
##装 1
##裆 1
##裊 1
##裏 1
##裔 1
##裕 1
##裘 1
##裙 1
##補 1
##裝 1
##裟 1
##裡 1
##裤 1
##裨 1
##裱 1
##裳 1
##裴 1
##裸 1
##裹 1
##製 1
##裾 1
##褂 1
##複 1
##褐 1
##褒 1
##褓 1
##褔 1
##褚 1
##褥 1
##褪 1
##褫 1
##褲 1
##褶 1
##褻 1
##襁 1
##襄 1
##襟 1
##襠 1
##襪 1
##襬 1
##襯 1
##襲 1
##西 1
##要 1
##覃 1
##覆 1
##覇 1
##見 1
##規 1
##覓 1
##視 1
##覚 1
##覦 1
##覧 1
##親 1
##覬 1
##観 1
##覷 1
##覺 1
##覽 1
##觀 1
##见 1
##观 1
##规 1
##觅 1
##视 1
##览 1
##觉 1
##觊 1
##觎 1
##觐 1
##觑 1
##角 1
##觞 1
##解 1
##觥 1
##触 1
##觸 1
##言 1
##訂 1
##計 1
##訊 1
##討 1
##訓 1
##訕 1
##訖 1
##託 1
##記 1
##訛 1
##訝 1
##訟 1
##訣 1
##訥 1
##訪 1
##設 1
##許 1
##訳 1
##訴 1
##訶 1
##診 1
##註 1
##証 1
##詆 1
##詐 1
##詔 1
##評 1
##詛 1
##詞 1
##詠 1
##詡 1
##詢 1
##詣 1
##試 1
##詩 1
##詫 1
##詬 1
##詭 1
##詮 1
##詰 1
##話 1
##該 1
##詳 1
##詹 1
##詼 1
##誅 1
##誇 1
##誉 1
##誌 1
##認 1
##誓 1
##誕 1
##誘 1
##語 1
##誠 1
##誡 1
##誣 1
##誤 1
##誥 1
##誦 1
##誨 1
##說 1
##説 1
##読 1
##誰 1
##課 1
##誹 1
##誼 1
##調 1
##諄 1
##談 1
##請 1
##諏 1
##諒 1
##論 1
##諗 1
##諜 1
##諡 1
##諦 1
##諧 1
##諫 1
##諭 1
##諮 1
##諱 1
##諳 1
##諷 1
##諸 1
##諺 1
##諾 1
##謀 1
##謁 1
##謂 1
##謄 1
##謊 1
##謎 1
##謐 1
##謔 1
##謗 1
##謙 1
##講 1
##謝 1
##謠 1
##謨 1
##謬 1
##謹 1
##謾 1
##譁 1
##證 1
##譎 1
##譏 1
##識 1
##譙 1
##譚 1
##譜 1
##警 1
##譬 1
##譯 1
##議 1
##譲 1
##譴 1
##護 1
##譽 1
##讀 1
##變 1
##讓 1
##讚 1
##讞 1
##计 1
##订 1
##认 1
##讥 1
##讧 1
##讨 1
##让 1
##讪 1
##讫 1
##训 1
##议 1
##讯 1
##记 1
##讲 1
##讳 1
##讴 1
##讶 1
##讷 1
##许 1
##讹 1
##论 1
##讼 1
##讽 1
##设 1
##访 1
##诀 1
##证 1
##诃 1
##评 1
##诅 1
##识 1
##诈 1
##诉 1
##诊 1
##诋 1
##词 1
##诏 1
##译 1
##试 1
##诗 1
##诘 1
##诙 1
##诚 1
##诛 1
##话 1
##诞 1
##诟 1
##诠 1
##诡 1
##询 1
##诣 1
##诤 1
##该 1
##详 1
##诧 1
##诩 1
##诫 1
##诬 1
##语 1
##误 1
##诰 1
##诱 1
##诲 1
##说 1
##诵 1
##诶 1
##请 1
##诸 1
##诺 1
##读 1
##诽 1
##课 1
##诿 1
##谀 1
##谁 1
##调 1
##谄 1
##谅 1
##谆 1
##谈 1
##谊 1
##谋 1
##谌 1
##谍 1
##谎 1
##谏 1
##谐 1
##谑 1
##谒 1
##谓 1
##谔 1
##谕 1
##谗 1
##谘 1
##谙 1
##谚 1
##谛 1
##谜 1
##谟 1
##谢 1
##谣 1
##谤 1
##谥 1
##谦 1
##谧 1
##谨 1
##谩 1
##谪 1
##谬 1
##谭 1
##谯 1
##谱 1
##谲 1
##谴 1
##谶 1
##谷 1
##豁 1
##豆 1
##豇 1
##豈 1
##豉 1
##豊 1
##豌 1
##豎 1
##豐 1
##豔 1
##豚 1
##象 1
##豢 1
##豪 1
##豫 1
##豬 1
##豹 1
##豺 1
##貂 1
##貅 1
##貌 1
##貓 1
##貔 1
##貘 1
##貝 1
##貞 1
##負 1
##財 1
##貢 1
##貧 1
##貨 1
##販 1
##貪 1
##貫 1
##責 1
##貯 1
##貰 1
##貳 1
##貴 1
##貶 1
##買 1
##貸 1
##費 1
##貼 1
##貽 1
##貿 1
##賀 1
##賁 1
##賂 1
##賃 1
##賄 1
##資 1
##賈 1
##賊 1
##賑 1
##賓 1
##賜 1
##賞 1
##賠 1
##賡 1
##賢 1
##賣 1
##賤 1
##賦 1
##質 1
##賬 1
##賭 1
##賴 1
##賺 1
##購 1
##賽 1
##贅 1
##贈 1
##贊 1
##贍 1
##贏 1
##贓 1
##贖 1
##贛 1
##贝 1
##贞 1
##负 1
##贡 1
##财 1
##责 1
##贤 1
##败 1
##账 1
##货 1
##质 1
##贩 1
##贪 1
##贫 1
##贬 1
##购 1
##贮 1
##贯 1
##贰 1
##贱 1
##贲 1
##贴 1
##贵 1
##贷 1
##贸 1
##费 1
##贺 1
##贻 1
##贼 1
##贾 1
##贿 1
##赁 1
##赂 1
##赃 1
##资 1
##赅 1
##赈 1
##赊 1
##赋 1
##赌 1
##赎 1
##赏 1
##赐 1
##赓 1
##赔 1
##赖 1
##赘 1
##赚 1
##赛 1
##赝 1
##赞 1
##赠 1
##赡 1
##赢 1
##赣 1
##赤 1
##赦 1
##赧 1
##赫 1
##赭 1
##走 1
##赳 1
##赴 1
##赵 1
##赶 1
##起 1
##趁 1
##超 1
##越 1
##趋 1
##趕 1
##趙 1
##趟 1
##趣 1
##趨 1
##足 1
##趴 1
##趵 1
##趸 1
##趺 1
##趾 1
##跃 1
##跄 1
##跆 1
##跋 1
##跌 1
##跎 1
##跑 1
##跖 1
##跚 1
##跛 1
##距 1
##跟 1
##跡 1
##跤 1
##跨 1
##跩 1
##跪 1
##路 1
##跳 1
##践 1
##跷 1
##跹 1
##跺 1
##跻 1
##踉 1
##踊 1
##踌 1
##踏 1
##踐 1
##踝 1
##踞 1
##踟 1
##踢 1
##踩 1
##踪 1
##踮 1
##踱 1
##踴 1
##踵 1
##踹 1
##蹂 1
##蹄 1
##蹇 1
##蹈 1
##蹉 1
##蹊 1
##蹋 1
##蹑 1
##蹒 1
##蹙 1
##蹟 1
##蹣 1
##蹤 1
##蹦 1
##蹩 1
##蹬 1
##蹭 1
##蹲 1
##蹴 1
##蹶 1
##蹺 1
##蹼 1
##蹿 1
##躁 1
##躇 1
##躉 1
##躊 1
##躋 1
##躍 1
##躏 1
##躪 1
##身 1
##躬 1
##躯 1
##躲 1
##躺 1
##軀 1
##車 1
##軋 1
##軌 1
##軍 1
##軒 1
##軟 1
##転 1
##軸 1
##軼 1
##軽 1
##軾 1
##較 1
##載 1
##輒 1
##輓 1
##輔 1
##輕 1
##輛 1
##輝 1
##輟 1
##輩 1
##輪 1
##輯 1
##輸 1
##輻 1
##輾 1
##輿 1
##轄 1
##轅 1
##轆 1
##轉 1
##轍 1
##轎 1
##轟 1
##车 1
##轧 1
##轨 1
##轩 1
##转 1
##轭 1
##轮 1
##软 1
##轰 1
##轲 1
##轴 1
##轶 1
##轻 1
##轼 1
##载 1
##轿 1
##较 1
##辄 1
##辅 1
##辆 1
##辇 1
##辈 1
##辉 1
##辊 1
##辍 1
##辐 1
##辑 1
##输 1
##辕 1
##辖 1
##辗 1
##辘 1
##辙 1
##辛 1
##辜 1
##辞 1
##辟 1
##辣 1
##辦 1
##辨 1
##辩 1
##辫 1
##辭 1
##辮 1
##辯 1
##辰 1
##辱 1
##農 1
##边 1
##辺 1
##辻 1
##込 1
##辽 1
##达 1
##迁 1
##迂 1
##迄 1
##迅 1
##过 1
##迈 1
##迎 1
##运 1
##近 1
##返 1
##还 1
##这 1
##进 1
##远 1
##违 1
##连 1
##迟 1
##迢 1
##迤 1
##迥 1
##迦 1
##迩 1
##迪 1
##迫 1
##迭 1
##述 1
##迴 1
##迷 1
##迸 1
##迹 1
##迺 1
##追 1
##退 1
##送 1
##适 1
##逃 1
##逅 1
##逆 1
##选 1
##逊 1
##逍 1
##透 1
##逐 1
##递 1
##途 1
##逕 1
##逗 1
##這 1
##通 1
##逛 1
##逝 1
##逞 1
##速 1
##造 1
##逢 1
##連 1
##逮 1
##週 1
##進 1
##逵 1
##逶 1
##逸 1
##逻 1
##逼 1
##逾 1
##遁 1
##遂 1
##遅 1
##遇 1
##遊 1
##運 1
##遍 1
##過 1
##遏 1
##遐 1
##遑 1
##遒 1
##道 1
##達 1
##違 1
##遗 1
##遙 1
##遛 1
##遜 1
##遞 1
##遠 1
##遢 1
##遣 1
##遥 1
##遨 1
##適 1
##遭 1
##遮 1
##遲 1
##遴 1
##遵 1
##遶 1
##遷 1
##選 1
##遺 1
##遼 1
##遽 1
##避 1
##邀 1
##邁 1
##邂 1
##邃 1
##還 1
##邇 1
##邈 1
##邊 1
##邋 1
##邏 1
##邑 1
##邓 1
##邕 1
##邛 1
##邝 1
##邢 1
##那 1
##邦 1
##邨 1
##邪 1
##邬 1
##邮 1
##邯 1
##邰 1
##邱 1
##邳 1
##邵 1
##邸 1
##邹 1
##邺 1
##邻 1
##郁 1
##郅 1
##郊 1
##郎 1
##郑 1
##郜 1
##郝 1
##郡 1
##郢 1
##郤 1
##郦 1
##郧 1
##部 1
##郫 1
##郭 1
##郴 1
##郵 1
##郷 1
##郸 1
##都 1
##鄂 1
##鄉 1
##鄒 1
##鄔 1
##鄙 1
##鄞 1
##鄢 1
##鄧 1
##鄭 1
##鄰 1
##鄱 1
##鄲 1
##鄺 1
##酉 1
##酊 1
##酋 1
##酌 1
##配 1
##酐 1
##酒 1
##酗 1
##酚 1
##酝 1
##酢 1
##酣 1
##酥 1
##酩 1
##酪 1
##酬 1
##酮 1
##酯 1
##酰 1
##酱 1
##酵 1
##酶 1
##酷 1
##酸 1
##酿 1
##醃 1
##醇 1
##醉 1
##醋 1
##醍 1
##醐 1
##醒 1
##醚 1
##醛 1
##醜 1
##醞 1
##醣 1
##醪 1
##醫 1
##醬 1
##醮 1
##醯 1
##醴 1
##醺 1
##釀 1
##釁 1
##采 1
##釉 1
##释 1
##釋 1
##里 1
##重 1
##野 1
##量 1
##釐 1
##金 1
##釗 1
##釘 1
##釜 1
##針 1
##釣 1
##釦 1
##釧 1
##釵 1
##鈀 1
##鈉 1
##鈍 1
##鈎 1
##鈔 1
##鈕 1
##鈞 1
##鈣 1
##鈦 1
##鈪 1
##鈴 1
##鈺 1
##鈾 1
##鉀 1
##鉄 1
##鉅 1
##鉉 1
##鉑 1
##鉗 1
##鉚 1
##鉛 1
##鉤 1
##鉴 1
##鉻 1
##銀 1
##銃 1
##銅 1
##銑 1
##銓 1
##銖 1
##銘 1
##銜 1
##銬 1
##銭 1
##銮 1
##銳 1
##銷 1
##銹 1
##鋁 1
##鋅 1
##鋒 1
##鋤 1
##鋪 1
##鋰 1
##鋸 1
##鋼 1
##錄 1
##錐 1
##錘 1
##錚 1
##錠 1
##錢 1
##錦 1
##錨 1
##錫 1
##錮 1
##錯 1
##録 1
##錳 1
##錶 1
##鍊 1
##鍋 1
##鍍 1
##鍛 1
##鍥 1
##鍰 1
##鍵 1
##鍺 1
##鍾 1
##鎂 1
##鎊 1
##鎌 1
##鎏 1
##鎔 1
##鎖 1
##鎗 1
##鎚 1
##鎧 1
##鎬 1
##鎮 1
##鎳 1
##鏈 1
##鏖 1
##鏗 1
##鏘 1
##鏞 1
##鏟 1
##鏡 1
##鏢 1
##鏤 1
##鏽 1
##鐘 1
##鐮 1
##鐲 1
##鐳 1
##鐵 1
##鐸 1
##鐺 1
##鑄 1
##鑊 1
##鑑 1
##鑒 1
##鑣 1
##鑫 1
##鑰 1
##鑲 1
##鑼 1
##鑽 1
##鑾 1
##鑿 1
##针 1
##钉 1
##钊 1
##钎 1
##钏 1
##钒 1
##钓 1
##钗 1
##钙 1
##钛 1
##钜 1
##钝 1
##钞 1
##钟 1
##钠 1
##钡 1
##钢 1
##钣 1
##钤 1
##钥 1
##钦 1
##钧 1
##钨 1
##钩 1
##钮 1
##钯 1
##钰 1
##钱 1
##钳 1
##钴 1
##钵 1
##钺 1
##钻 1
##钼 1
##钾 1
##钿 1
##铀 1
##铁 1
##铂 1
##铃 1
##铄 1
##铅 1
##铆 1
##铉 1
##铎 1
##铐 1
##铛 1
##铜 1
##铝 1
##铠 1
##铡 1
##铢 1
##铣 1
##铤 1
##铨 1
##铩 1
##铬 1
##铭 1
##铮 1
##铰 1
##铲 1
##铵 1
##银 1
##铸 1
##铺 1
##链 1
##铿 1
##销 1
##锁 1
##锂 1
##锄 1
##锅 1
##锆 1
##锈 1
##锉 1
##锋 1
##锌 1
##锏 1
##锐 1
##锑 1
##错 1
##锚 1
##锟 1
##锡 1
##锢 1
##锣 1
##锤 1
##锥 1
##锦 1
##锭 1
##键 1
##锯 1
##锰 1
##锲 1
##锵 1
##锹 1
##锺 1
##锻 1
##镀 1
##镁 1
##镂 1
##镇 1
##镉 1
##镌 1
##镍 1
##镐 1
##镑 1
##镕 1
##镖 1
##镗 1
##镛 1
##镜 1
##镣 1
##镭 1
##镯 1
##镰 1
##镳 1
##镶 1
##長 1
##长 1
##門 1
##閃 1
##閉 1
##開 1
##閎 1
##閏 1
##閑 1
##閒 1
##間 1
##閔 1
##閘 1
##閡 1
##関 1
##閣 1
##閥 1
##閨 1
##閩 1
##閱 1
##閲 1
##閹 1
##閻 1
##閾 1
##闆 1
##闇 1
##闊 1
##闌 1
##闍 1
##闔 1
##闕 1
##闖 1
##闘 1
##關 1
##闡 1
##闢 1
##门 1
##闪 1
##闫 1
##闭 1
##问 1
##闯 1
##闰 1
##闲 1
##间 1
##闵 1
##闷 1
##闸 1
##闹 1
##闺 1
##闻 1
##闽 1
##闾 1
##阀 1
##阁 1
##阂 1
##阅 1
##阆 1
##阇 1
##阈 1
##阉 1
##阎 1
##阐 1
##阑 1
##阔 1
##阕 1
##阖 1
##阙 1
##阚 1
##阜 1
##队 1
##阡 1
##阪 1
##阮 1
##阱 1
##防 1
##阳 1
##阴 1
##阵 1
##阶 1
##阻 1
##阿 1
##陀 1
##陂 1
##附 1
##际 1
##陆 1
##陇 1
##陈 1
##陋 1
##陌 1
##降 1
##限 1
##陕 1
##陛 1
##陝 1
##陞 1
##陟 1
##陡 1
##院 1
##陣 1
##除 1
##陨 1
##险 1
##陪 1
##陰 1
##陲 1
##陳 1
##陵 1
##陶 1
##陷 1
##陸 1
##険 1
##陽 1
##隅 1
##隆 1
##隈 1
##隊 1
##隋 1
##隍 1
##階 1
##随 1
##隐 1
##隔 1
##隕 1
##隘 1
##隙 1
##際 1
##障 1
##隠 1
##隣 1
##隧 1
##隨 1
##險 1
##隱 1
##隴 1
##隶 1
##隸 1
##隻 1
##隼 1
##隽 1
##难 1
##雀 1
##雁 1
##雄 1
##雅 1
##集 1
##雇 1
##雉 1
##雋 1
##雌 1
##雍 1
##雎 1
##雏 1
##雑 1
##雒 1
##雕 1
##雖 1
##雙 1
##雛 1
##雜 1
##雞 1
##離 1
##難 1
##雨 1
##雪 1
##雯 1
##雰 1
##雲 1
##雳 1
##零 1
##雷 1
##雹 1
##電 1
##雾 1
##需 1
##霁 1
##霄 1
##霆 1
##震 1
##霈 1
##霉 1
##霊 1
##霍 1
##霎 1
##霏 1
##霑 1
##霓 1
##霖 1
##霜 1
##霞 1
##霧 1
##霭 1
##霰 1
##露 1
##霸 1
##霹 1
##霽 1
##霾 1
##靂 1
##靄 1
##靈 1
##青 1
##靓 1
##靖 1
##静 1
##靚 1
##靛 1
##靜 1
##非 1
##靠 1
##靡 1
##面 1
##靥 1
##靦 1
##革 1
##靳 1
##靴 1
##靶 1
##靼 1
##鞅 1
##鞋 1
##鞍 1
##鞏 1
##鞑 1
##鞘 1
##鞠 1
##鞣 1
##鞦 1
##鞭 1
##韆 1
##韋 1
##韌 1
##韓 1
##韜 1
##韦 1
##韧 1
##韩 1
##韬 1
##韭 1
##音 1
##韵 1
##韶 1
##韻 1
##響 1
##頁 1
##頂 1
##頃 1
##項 1
##順 1
##須 1
##頌 1
##預 1
##頑 1
##頒 1
##頓 1
##頗 1
##領 1
##頜 1
##頡 1
##頤 1
##頫 1
##頭 1
##頰 1
##頷 1
##頸 1
##頹 1
##頻 1
##頼 1
##顆 1
##題 1
##額 1
##顎 1
##顏 1
##顔 1
##願 1
##顛 1
##類 1
##顧 1
##顫 1
##顯 1
##顱 1
##顴 1
##页 1
##顶 1
##顷 1
##项 1
##顺 1
##须 1
##顼 1
##顽 1
##顾 1
##顿 1
##颁 1
##颂 1
##预 1
##颅 1
##领 1
##颇 1
##颈 1
##颉 1
##颊 1
##颌 1
##颍 1
##颐 1
##频 1
##颓 1
##颔 1
##颖 1
##颗 1
##题 1
##颚 1
##颛 1
##颜 1
##额 1
##颞 1
##颠 1
##颡 1
##颢 1
##颤 1
##颦 1
##颧 1
##風 1
##颯 1
##颱 1
##颳 1
##颶 1
##颼 1
##飄 1
##飆 1
##风 1
##飒 1
##飓 1
##飕 1
##飘 1
##飙 1
##飚 1
##飛 1
##飞 1
##食 1
##飢 1
##飨 1
##飩 1
##飪 1
##飯 1
##飲 1
##飼 1
##飽 1
##飾 1
##餃 1
##餅 1
##餉 1
##養 1
##餌 1
##餐 1
##餒 1
##餓 1
##餘 1
##餚 1
##餛 1
##餞 1
##餡 1
##館 1
##餮 1
##餵 1
##餾 1
##饅 1
##饈 1
##饋 1
##饌 1
##饍 1
##饑 1
##饒 1
##饕 1
##饗 1
##饞 1
##饥 1
##饨 1
##饪 1
##饬 1
##饭 1
##饮 1
##饯 1
##饰 1
##饱 1
##饲 1
##饴 1
##饵 1
##饶 1
##饷 1
##饺 1
##饼 1
##饽 1
##饿 1
##馀 1
##馁 1
##馄 1
##馅 1
##馆 1
##馈 1
##馋 1
##馍 1
##馏 1
##馒 1
##馔 1
##首 1
##馗 1
##香 1
##馥 1
##馨 1
##馬 1
##馭 1
##馮 1
##馳 1
##馴 1
##駁 1
##駄 1
##駅 1
##駆 1
##駐 1
##駒 1
##駕 1
##駛 1
##駝 1
##駭 1
##駱 1
##駿 1
##騁 1
##騎 1
##騏 1
##験 1
##騙 1
##騨 1
##騰 1
##騷 1
##驀 1
##驅 1
##驊 1
##驍 1
##驒 1
##驕 1
##驗 1
##驚 1
##驛 1
##驟 1
##驢 1
##驥 1
##马 1
##驭 1
##驮 1
##驯 1
##驰 1
##驱 1
##驳 1
##驴 1
##驶 1
##驷 1
##驸 1
##驹 1
##驻 1
##驼 1
##驾 1
##驿 1
##骁 1
##骂 1
##骄 1
##骅 1
##骆 1
##骇 1
##骈 1
##骊 1
##骋 1
##验 1
##骏 1
##骐 1
##骑 1
##骗 1
##骚 1
##骛 1
##骜 1
##骞 1
##骠 1
##骡 1
##骤 1
##骥 1
##骧 1
##骨 1
##骯 1
##骰 1
##骶 1
##骷 1
##骸 1
##骼 1
##髂 1
##髅 1
##髋 1
##髏 1
##髒 1
##髓 1
##體 1
##髖 1
##高 1
##髦 1
##髪 1
##髮 1
##髯 1
##髻 1
##鬃 1
##鬆 1
##鬍 1
##鬓 1
##鬚 1
##鬟 1
##鬢 1
##鬣 1
##鬥 1
##鬧 1
##鬱 1
##鬼 1
##魁 1
##魂 1
##魄 1
##魅 1
##魇 1
##魍 1
##魏 1
##魔 1
##魘 1
##魚 1
##魯 1
##魷 1
##鮑 1
##鮨 1
##鮪 1
##鮭 1
##鮮 1
##鯉 1
##鯊 1
##鯖 1
##鯛 1
##鯨 1
##鯰 1
##鯽 1
##鰍 1
##鰓 1
##鰭 1
##鰲 1
##鰻 1
##鰾 1
##鱈 1
##鱉 1
##鱔 1
##鱗 1
##鱷 1
##鱸 1
##鱼 1
##鱿 1
##鲁 1
##鲈 1
##鲍 1
##鲑 1
##鲛 1
##鲜 1
##鲟 1
##鲢 1
##鲤 1
##鲨 1
##鲫 1
##鲱 1
##鲲 1
##鲶 1
##鲷 1
##鲸 1
##鳃 1
##鳄 1
##鳅 1
##鳌 1
##鳍 1
##鳕 1
##鳖 1
##鳗 1
##鳝 1
##鳞 1
##鳥 1
##鳩 1
##鳳 1
##鳴 1
##鳶 1
##鴉 1
##鴕 1
##鴛 1
##鴦 1
##鴨 1
##鴻 1
##鴿 1
##鵑 1
##鵜 1
##鵝 1
##鵡 1
##鵬 1
##鵰 1
##鵲 1
##鶘 1
##鶩 1
##鶯 1
##鶴 1
##鷗 1
##鷲 1
##鷹 1
##鷺 1
##鸚 1
##鸞 1
##鸟 1
##鸠 1
##鸡 1
##鸢 1
##鸣 1
##鸥 1
##鸦 1
##鸨 1
##鸪 1
##鸭 1
##鸯 1
##鸳 1
##鸵 1
##鸽 1
##鸾 1
##鸿 1
##鹂 1
##鹃 1
##鹄 1
##鹅 1
##鹈 1
##鹉 1
##鹊 1
##鹌 1
##鹏 1
##鹑 1
##鹕 1
##鹘 1
##鹜 1
##鹞 1
##鹤 1
##鹦 1
##鹧 1
##鹫 1
##鹭 1
##鹰 1
##鹳 1
##鹵 1
##鹹 1
##鹼 1
##鹽 1
##鹿 1
##麂 1
##麋 1
##麒 1
##麓 1
##麗 1
##麝 1
##麟 1
##麥 1
##麦 1
##麩 1
##麴 1
##麵 1
##麸 1
##麺 1
##麻 1
##麼 1
##麽 1
##麾 1
##黃 1
##黄 1
##黍 1
##黎 1
##黏 1
##黑 1
##黒 1
##黔 1
##默 1
##黛 1
##黜 1
##黝 1
##點 1
##黠 1
##黨 1
##黯 1
##黴 1
##鼋 1
##鼎 1
##鼐 1
##鼓 1
##鼠 1
##鼬 1
##鼹 1
##鼻 1
##鼾 1
##齁 1
##齊 1
##齋 1
##齐 1
##齒 1
##齡 1
##齢 1
##齣 1
##齦 1
##齿 1
##龄 1
##龅 1
##龈 1
##龊 1
##龋 1
##龌 1
##龍 1
##龐 1
##龔 1
##龕 1
##龙 1
##龚 1
##龛 1
##龜 1
##龟 1
##︰ 1
##︱ 1
##︶ 1
##︿ 1
##﹁ 1
##﹂ 1
##﹍ 1
##﹏ 1
##﹐ 1
##﹑ 1
##﹒ 1
##﹔ 1
##﹕ 1
##﹖ 1
##﹗ 1
##﹙ 1
##﹚ 1
##﹝ 1
##﹞ 1
##﹡ 1
##﹣ 1
##！ 1
##＂ 1
##＃ 1
##＄ 1
##％ 1
##＆ 1
##＇ 1
##（ 1
##） 1
##＊ 1
##， 1
##－ 1
##． 1
##／ 1
##： 1
##； 1
##＜ 1
##？ 1
##＠ 1
##［ 1
##＼ 1
##］ 1
##＾ 1
##＿ 1
##｀ 1
##ｆ 1
##ｈ 1
##ｊ 1
##ｕ 1
##ｗ 1
##ｚ 1
##｛ 1
##｝ 1
##｡ 1
##｢ 1
##｣ 1
##､ 1
##･ 1
##ｯ 1
##ｰ 1
##ｲ 1
##ｸ 1
##ｼ 1
##ｽ 1
##ﾄ 1
##ﾉ 1
##ﾌ 1
##ﾗ 1
##ﾙ 1
##ﾝ 1
##ﾞ 1
##ﾟ 1
##￣ 1
##￥ 1
##👍 1
##🔥 1
##😂 1
##😎 1
